#pragma once
#include <Arduino.h>

#ifdef __has_attribute
#define HAVE_ATTRIBUTE(x) __has_attribute(x)
#else
#define HAVE_ATTRIBUTE(x) 0
#endif
#if HAVE_ATTRIBUTE(aligned) || (defined(__GNUC__) && !defined(__clang__))
#define DATA_ALIGN_ATTRIBUTE __attribute__((aligned(4)))
#else
#define DATA_ALIGN_ATTRIBUTE
#endif

// automatically configure network
#define TF_NUM_INPUTS 5
#define TF_NUM_OUTPUTS 1
#define TF_NUM_OPS 1
#define TF_OP_FULLYCONNECTED




// sample data
float x0[5] = {39.40000000000f, 96.60000000000f, 14.60000000000f, 42.90000000000f, 1.82000000000f};
float x1[5] = {41.70000000000f, 82.50000000000f, 1.70000000000f, 31.10000000000f, 1.80000000000f};
float x2[5] = {29.80000000000f, 59.10000000000f, 5.20000000000f, 18.90000000000f, 1.72000000000f};
float x3[5] = {27.10000000000f, 39.10000000000f, 6.10000000000f, 13.50000000000f, 1.15000000000f};


/** model size = 5256 bytes **/
const unsigned char airQualityModel[] DATA_ALIGN_ATTRIBUTE = { 0x1c, 0x00, 0x00, 0x00, 0x54, 0x46, 0x4c, 0x33, 0x14, 0x00, 0x20, 0x00, 0x1c, 0x00, 0x18, 0x00, 0x14, 0x00, 0x10, 0x00, 0x0c, 0x00, 0x00, 0x00, 0x08, 0x00, 0x04, 0x00, 0x14, 0x00, 0x00, 0x00, 0x1c, 0x00, 0x00, 0x00, 0x98, 0x00, 0x00, 0x00, 0xf0, 0x00, 0x00, 0x00, 0x60, 0x0e, 0x00, 0x00, 0x70, 0x0e, 0x00, 0x00, 0x24, 0x14, 0x00, 0x00, 0x03, 0x00, 0x00, 0x00, 0x01, 0x00, 0x00, 0x00, 0x10, 0x00, 0x00, 0x00, 0x00, 0x00, 0x0a, 0x00, 0x10, 0x00, 0x0c, 0x00, 0x08, 0x00, 0x04, 0x00, 0x0a, 0x00, 0x00, 0x00, 0x0c, 0x00, 0x00, 0x00, 0x1c, 0x00, 0x00, 0x00, 0x3c, 0x00, 0x00, 0x00, 0x0f, 0x00, 0x00, 0x00, 0x73, 0x65, 0x72, 0x76, 0x69, 0x6e, 0x67, 0x5f, 0x64, 0x65, 0x66, 0x61, 0x75, 0x6c, 0x74, 0x00, 0x01, 0x00, 0x00, 0x00, 0x04, 0x00, 0x00, 0x00, 0x90, 0xff, 0xff, 0xff, 0x0a, 0x00, 0x00, 0x00, 0x04, 0x00, 0x00, 0x00, 0x08, 0x00, 0x00, 0x00, 0x6f, 0x75, 0x74, 0x70, 0x75, 0x74, 0x5f, 0x30, 0x00, 0x00, 0x00, 0x00, 0x01, 0x00, 0x00, 0x00, 0x04, 0x00, 0x00, 0x00, 0x86, 0xf1, 0xff, 0xff, 0x04, 0x00, 0x00, 0x00, 0x0c, 0x00, 0x00, 0x00, 0x6b, 0x65, 0x72, 0x61, 0x73, 0x5f, 0x74, 0x65, 0x6e, 0x73, 0x6f, 0x72, 0x00, 0x00, 0x00, 0x00, 0x02, 0x00, 0x00, 0x00, 0x34, 0x00, 0x00, 0x00, 0x04, 0x00, 0x00, 0x00, 0xdc, 0xff, 0xff, 0xff, 0x0d, 0x00, 0x00, 0x00, 0x04, 0x00, 0x00, 0x00, 0x13, 0x00, 0x00, 0x00, 0x43, 0x4f, 0x4e, 0x56, 0x45, 0x52, 0x53, 0x49, 0x4f, 0x4e, 0x5f, 0x4d, 0x45, 0x54, 0x41, 0x44, 0x41, 0x54, 0x41, 0x00, 0x08, 0x00, 0x0c, 0x00, 0x08, 0x00, 0x04, 0x00, 0x08, 0x00, 0x00, 0x00, 0x0c, 0x00, 0x00, 0x00, 0x04, 0x00, 0x00, 0x00, 0x13, 0x00, 0x00, 0x00, 0x6d, 0x69, 0x6e, 0x5f, 0x72, 0x75, 0x6e, 0x74, 0x69, 0x6d, 0x65, 0x5f, 0x76, 0x65, 0x72, 0x73, 0x69, 0x6f, 0x6e, 0x00, 0x0e, 0x00, 0x00, 0x00, 0x6c, 0x0d, 0x00, 0x00, 0x64, 0x0d, 0x00, 0x00, 0x54, 0x0c, 0x00, 0x00, 0x44, 0x04, 0x00, 0x00, 0x24, 0x04, 0x00, 0x00, 0xd4, 0x03, 0x00, 0x00, 0x44, 0x03, 0x00, 0x00, 0xb4, 0x00, 0x00, 0x00, 0xac, 0x00, 0x00, 0x00, 0xa4, 0x00, 0x00, 0x00, 0x9c, 0x00, 0x00, 0x00, 0x94, 0x00, 0x00, 0x00, 0x74, 0x00, 0x00, 0x00, 0x04, 0x00, 0x00, 0x00, 0x3a, 0xf2, 0xff, 0xff, 0x04, 0x00, 0x00, 0x00, 0x60, 0x00, 0x00, 0x00, 0x10, 0x00, 0x00, 0x00, 0x00, 0x00, 0x00, 0x00, 0x08, 0x00, 0x0e, 0x00, 0x08, 0x00, 0x04, 0x00, 0x08, 0x00, 0x00, 0x00, 0x10, 0x00, 0x00, 0x00, 0x24, 0x00, 0x00, 0x00, 0x00, 0x00, 0x06, 0x00, 0x08, 0x00, 0x04, 0x00, 0x06, 0x00, 0x00, 0x00, 0x04, 0x00, 0x00, 0x00, 0x00, 0x00, 0x00, 0x00, 0x0c, 0x00, 0x18, 0x00, 0x14, 0x00, 0x10, 0x00, 0x0c, 0x00, 0x04, 0x00, 0x0c, 0x00, 0x00, 0x00, 0x76, 0xae, 0x92, 0x29, 0x4f, 0x9d, 0x59, 0x55, 0x02, 0x00, 0x00, 0x00, 0x02, 0x00, 0x00, 0x00, 0x04, 0x00, 0x00, 0x00, 0x06, 0x00, 0x00, 0x00, 0x32, 0x2e, 0x31, 0x38, 0x2e, 0x30, 0x00, 0x00, 0xa6, 0xf2, 0xff, 0xff, 0x04, 0x00, 0x00, 0x00, 0x10, 0x00, 0x00, 0x00, 0x31, 0x2e, 0x35, 0x2e, 0x30, 0x00, 0x00, 0x00, 0x00, 0x00, 0x00, 0x00, 0x00, 0x00, 0x00, 0x00, 0xbc, 0xed, 0xff, 0xff, 0xc0, 0xed, 0xff, 0xff, 0xc4, 0xed, 0xff, 0xff, 0xc8, 0xed, 0xff, 0xff, 0xd2, 0xf2, 0xff, 0xff, 0x04, 0x00, 0x00, 0x00, 0x80, 0x02, 0x00, 0x00, 0x94, 0x60, 0x80, 0xbc, 0xb7, 0xfc, 0x79, 0x3d, 0x87, 0x6d, 0x2b, 0x3e, 0xcc, 0x59, 0x09, 0xbe, 0xe2, 0x25, 0xf9, 0xbe, 0xd7, 0x4f, 0x16, 0xbe, 0xb0, 0xf9, 0xf8, 0xbc, 0x96, 0xaa, 0x39, 0x3e, 0x7e, 0x49, 0x4a, 0x3e, 0x3c, 0xa4, 0x8b, 0xbd, 0x65, 0xf7, 0x7c, 0x3e, 0x85, 0x1d, 0x4e, 0x3e, 0x3e, 0x21, 0x0a, 0x3d, 0x7d, 0x5d, 0x97, 0x3e, 0xbf, 0x28, 0x54, 0x3f, 0xa7, 0x6d, 0xae, 0xbe, 0xc2, 0x59, 0x88, 0xbe, 0x68, 0xd5, 0x20, 0x3d, 0x58, 0xc0, 0xaf, 0x3e, 0xb1, 0xd8, 0x31, 0xbe, 0x60, 0x5b, 0x4d, 0xbe, 0xa7, 0x7c, 0x2f, 0xbe, 0x56, 0x4c, 0x6e, 0xbe, 0x1c, 0x66, 0x86, 0x3e, 0x50, 0xbf, 0x5a, 0x3e, 0x0e, 0xae, 0x68, 0xbd, 0x9b, 0x48, 0x2a, 0x3e, 0x1f, 0x2e, 0x96, 0x3d, 0xe6, 0x71, 0x56, 0xbe, 0xcf, 0x33, 0x07, 0xbf, 0xec, 0x85, 0xcb, 0xbe, 0x98, 0xf4, 0x97, 0xbe, 0xc8, 0x23, 0xac, 0xbe, 0x30, 0x53, 0x96, 0x3e, 0x48, 0x60, 0x45, 0x3e, 0x5a, 0xf7, 0xf3, 0xbd, 0xaf, 0xf5, 0x37, 0xbe, 0xb8, 0x7e, 0xb2, 0x3e, 0xa7, 0x0f, 0x3f, 0xbd, 0xfb, 0x15, 0x31, 0x3e, 0xdf, 0x3f, 0x7a, 0x3d, 0xb0, 0x2c, 0x6c, 0xbe, 0x91, 0xc9, 0x9e, 0x3e, 0x5b, 0x4d, 0xa6, 0xbe, 0x46, 0x4a, 0xa8, 0x3e, 0xf0, 0x9e, 0xac, 0xbd, 0x86, 0x68, 0x8e, 0xbe, 0x5c, 0xec, 0x40, 0xbe, 0xa0, 0x8e, 0xb6, 0x3e, 0x5a, 0xfd, 0xb8, 0xbe, 0x5f, 0x67, 0x58, 0xbe, 0x6d, 0x1c, 0x55, 0x3e, 0xf8, 0xfd, 0x28, 0x3e, 0x5c, 0x81, 0xa3, 0xbd, 0x27, 0x7f, 0x96, 0x3f, 0x18, 0x2e, 0x12, 0xbc, 0x41, 0x81, 0x11, 0x3d, 0x72, 0x98, 0x32, 0x3e, 0x0b, 0x28, 0x86, 0xbd, 0xa9, 0xdb, 0x60, 0xbf, 0xf1, 0xb4, 0x4c, 0xbd, 0x82, 0x7a, 0xca, 0x3d, 0x42, 0xf9, 0x4d, 0x3e, 0x17, 0xda, 0x8f, 0x3e, 0x82, 0xc9, 0x11, 0x3f, 0x90, 0x6d, 0x11, 0x3e, 0x69, 0x0d, 0x58, 0x3e, 0x16, 0xf3, 0x81, 0x3c, 0xeb, 0x16, 0x24, 0xbe, 0x1e, 0x22, 0x9d, 0x3f, 0x90, 0x84, 0xf6, 0xbe, 0xce, 0x9d, 0xe8, 0xbe, 0x4a, 0x47, 0xa9, 0x3e, 0x15, 0x50, 0x5f, 0x3e, 0x8c, 0xa8, 0xc4, 0xbd, 0x57, 0x47, 0x35, 0xbe, 0x8c, 0xaf, 0xe5, 0xbd, 0x14, 0x7a, 0x70, 0x3e, 0x67, 0x13, 0x81, 0x3d, 0xec, 0x14, 0x06, 0x3e, 0x52, 0x78, 0xbe, 0xbe, 0xdf, 0x71, 0x7f, 0xbe, 0xe8, 0x64, 0x4d, 0x3d, 0x53, 0x98, 0xb6, 0xbe, 0x64, 0x1a, 0xcb, 0x3e, 0xc5, 0xd4, 0x3d, 0x3e, 0x8a, 0x91, 0x7e, 0x3d, 0xb0, 0xf4, 0x7d, 0xbe, 0x06, 0xcf, 0xb9, 0x3e, 0xcc, 0x3a, 0x66, 0x3f, 0xb7, 0xfe, 0xf4, 0xbd, 0x57, 0x9c, 0xb4, 0x3e, 0x12, 0x18, 0x14, 0x3e, 0xc5, 0x0c, 0x1d, 0xbc, 0x32, 0xd1, 0x33, 0xbf, 0x9f, 0x30, 0x92, 0xbe, 0x00, 0x73, 0x9b, 0x3c, 0x38, 0x49, 0x35, 0xbd, 0x94, 0x5d, 0xbe, 0xbd, 0x2e, 0x37, 0xa0, 0x3e, 0xa4, 0x79, 0xf0, 0xbd, 0xf4, 0x5e, 0xc3, 0xbd, 0x00, 0x12, 0xb6, 0x3c, 0x3e, 0x64, 0x9d, 0xbe, 0x66, 0xcd, 0x70, 0xbe, 0xf2, 0xa0, 0xa7, 0xbe, 0xf0, 0x0d, 0x07, 0xbe, 0x64, 0x63, 0x6e, 0xbe, 0xec, 0x90, 0xb9, 0x3e, 0x63, 0x9f, 0x23, 0xbe, 0xa9, 0x82, 0xa7, 0xbc, 0xcb, 0x8e, 0xf9, 0x3d, 0x1a, 0x05, 0x74, 0x3c, 0x52, 0x10, 0x9b, 0x3e, 0x15, 0x7f, 0xb5, 0x3f, 0xa6, 0x99, 0x18, 0xbe, 0xe7, 0xc4, 0x98, 0x3e, 0xb8, 0xf9, 0x95, 0x3e, 0x08, 0xcd, 0xd8, 0x3d, 0x05, 0x02, 0xa9, 0xbf, 0xdc, 0x85, 0xcb, 0xbd, 0x73, 0x71, 0x3f, 0xbe, 0x39, 0x53, 0x51, 0xbe, 0x39, 0x78, 0xb8, 0xbe, 0xa8, 0x8e, 0x18, 0x3e, 0xc0, 0x50, 0x57, 0xbc, 0xa7, 0xfa, 0x5e, 0xbe, 0xb4, 0x10, 0xbd, 0xbd, 0x10, 0x81, 0x17, 0x3e, 0x42, 0x34, 0x9d, 0xbe, 0xe8, 0x90, 0x43, 0xbe, 0x9b, 0x37, 0x45, 0x3e, 0x6e, 0x9a, 0x61, 0xbe, 0xfe, 0xd1, 0x90, 0x3e, 0x4c, 0xc5, 0x85, 0xbf, 0x06, 0xf5, 0x81, 0x3e, 0x12, 0xae, 0x13, 0xbe, 0xcd, 0x72, 0x7e, 0xbd, 0xf9, 0x48, 0xae, 0x3e, 0x98, 0xbc, 0x45, 0xbf, 0x9d, 0x0c, 0x62, 0x3e, 0x74, 0x58, 0x1f, 0x3e, 0x35, 0x9f, 0x9c, 0xbd, 0x96, 0x02, 0x74, 0x3e, 0x55, 0x95, 0x93, 0xbf, 0x13, 0xee, 0x35, 0x3e, 0x73, 0x9c, 0xc7, 0xbe, 0xd0, 0x93, 0xc0, 0xbd, 0xdf, 0x20, 0x84, 0x3e, 0x69, 0x2d, 0x43, 0x3e, 0xe4, 0x62, 0x24, 0x3d, 0x9e, 0x32, 0x13, 0x3e, 0xad, 0x02, 0x24, 0x3e, 0xe7, 0x18, 0xf8, 0x3b, 0x8d, 0x3f, 0x2c, 0x3f, 0x00, 0x1b, 0x25, 0xbe, 0x57, 0x81, 0x41, 0x3e, 0x34, 0x8a, 0x91, 0xbc, 0xfa, 0xa7, 0x21, 0xbe, 0xff, 0x77, 0x30, 0xbe, 0x5e, 0xf5, 0xff, 0xff, 0x04, 0x00, 0x00, 0x00, 0x80, 0x00, 0x00, 0x00, 0x15, 0xe3, 0x93, 0x3f, 0x64, 0x56, 0xc6, 0xbe, 0xf2, 0x12, 0xd0, 0xbf, 0x00, 0x00, 0x00, 0x00, 0x00, 0x00, 0x00, 0x00, 0x63, 0xcb, 0x0a, 0x40, 0x00, 0x00, 0x00, 0x00, 0x29, 0x87, 0xc4, 0x3e, 0x05, 0x26, 0xb9, 0xbe, 0x00, 0x00, 0x00, 0x00, 0x87, 0xe3, 0x17, 0xc0, 0x99, 0x0d, 0xe2, 0x3f, 0x02, 0x7c, 0x12, 0xc0, 0x54, 0x56, 0x0e, 0xc0, 0x01, 0xdb, 0x67, 0xbd, 0x7d, 0x43, 0x1a, 0xbf, 0x00, 0x00, 0x00, 0x00, 0xd4, 0x6d, 0x03, 0xc0, 0x95, 0x4e, 0xfe, 0x3f, 0x00, 0x00, 0x00, 0x00, 0x00, 0x00, 0x00, 0x00, 0x00, 0x00, 0x00, 0x00, 0xda, 0x03, 0xff, 0xbf, 0xe4, 0x6d, 0x19, 0x40, 0x00, 0x00, 0x00, 0x00, 0x00, 0x00, 0x00, 0x00, 0xe8, 0x2a, 0xf7, 0x3f, 0x3a, 0x05, 0x18, 0x40, 0x38, 0xa7, 0xaf, 0x3f, 0xde, 0x22, 0x2c, 0xbc, 0xc0, 0x81, 0xb3, 0xbf, 0xff, 0x56, 0x85, 0x3f, 0xea, 0xf5, 0xff, 0xff, 0x04, 0x00, 0x00, 0x00, 0x40, 0x00, 0x00, 0x00, 0x52, 0x17, 0x12, 0xbd, 0xbd, 0x47, 0x6e, 0xbd, 0xd0, 0xe7, 0xfc, 0xbe, 0x9a, 0x86, 0x76, 0xbe, 0xc6, 0x6f, 0xc2, 0x3f, 0x05, 0x1c, 0xa9, 0xbb, 0x00, 0x00, 0x00, 0x00, 0x00, 0x00, 0x00, 0x00, 0x05, 0xa4, 0xf1, 0xbd, 0x00, 0x00, 0x00, 0x00, 0x0b, 0x91, 0x12, 0xbe, 0xf5, 0x06, 0xd8, 0x3f, 0x57, 0xbf, 0x53, 0x3f, 0x94, 0xfc, 0xb0, 0x3f, 0x89, 0xf7, 0xd6, 0xbf, 0x2f, 0x27, 0xe8, 0xbc, 0x36, 0xf6, 0xff, 0xff, 0x04, 0x00, 0x00, 0x00, 0x10, 0x00, 0x00, 0x00, 0x05, 0x66, 0xb1, 0xbf, 0xf0, 0xfb, 0x1f, 0xbf, 0x49, 0x61, 0xee, 0x3e, 0xc2, 0x17, 0xa9, 0x3f, 0x52, 0xf6, 0xff, 0xff, 0x04, 0x00, 0x00, 0x00, 0x00, 0x08, 0x00, 0x00, 0xa5, 0xef, 0x48, 0x3e, 0x40, 0x21, 0x21, 0x3e, 0xf9, 0x56, 0x96, 0x3e, 0xe1, 0xa6, 0xa1, 0x3e, 0xe9, 0x53, 0x38, 0xbe, 0xfd, 0xee, 0x28, 0xbe, 0xe2, 0xf6, 0x9d, 0xbe, 0xc3, 0x5a, 0x3f, 0xbe, 0xaa, 0xc4, 0x4d, 0x3d, 0xe0, 0xc8, 0xd3, 0x3c, 0x72, 0xd4, 0xae, 0xbc, 0x4e, 0x0c, 0x8f, 0x3e, 0x7d, 0x9b, 0x6f, 0xbe, 0x84, 0x44, 0x99, 0x3c, 0xcc, 0xdd, 0xa2, 0xbd, 0xa8, 0x98, 0x46, 0xbd, 0xb2, 0x97, 0x35, 0x3e, 0xc0, 0x81, 0x86, 0x3d, 0xe1, 0xf3, 0x21, 0xbe, 0xec, 0xf2, 0x44, 0xbe, 0x5e, 0xe5, 0xf9, 0xbd, 0x35, 0xbb, 0x8d, 0xbe, 0xd8, 0xf5, 0x80, 0x3e, 0x54, 0xbf, 0x0a, 0xbe, 0xd2, 0x06, 0x9f, 0xbe, 0x8d, 0xab, 0xae, 0x3e, 0x26, 0xa8, 0x58, 0xbe, 0xc0, 0x4b, 0xfd, 0x3d, 0xca, 0xe5, 0xa2, 0xbe, 0x71, 0xbe, 0xe5, 0x3d, 0x4c, 0x78, 0x92, 0xbe, 0x95, 0x2b, 0x8c, 0xbe, 0x6a, 0xe0, 0x3e, 0x3e, 0xd6, 0x23, 0x82, 0x3d, 0x06, 0xb7, 0x5a, 0x3e, 0xfa, 0x4d, 0x3f, 0x3e, 0x4b, 0x24, 0x61, 0xbe, 0xf5, 0x37, 0x85, 0xbe, 0x00, 0x7b, 0xd1, 0x3a, 0x59, 0xd6, 0xbb, 0x3d, 0xc6, 0x79, 0x6e, 0xbe, 0x4d, 0x32, 0x92, 0xbe, 0x28, 0xee, 0x12, 0xbe, 0x88, 0x63, 0xdf, 0x3d, 0xa0, 0x82, 0x8a, 0xbe, 0x7b, 0xeb, 0xc3, 0xbe, 0x27, 0x47, 0x72, 0x3e, 0xc7, 0x4a, 0x9b, 0x3e, 0x26, 0xe5, 0xb0, 0xbe, 0x65, 0xd1, 0x8e, 0x3e, 0x0c, 0x8e, 0x87, 0xbe, 0xbe, 0xb6, 0x89, 0xbe, 0x1b, 0x37, 0x92, 0xbe, 0x34, 0xf8, 0xbb, 0x3d, 0xdc, 0xa1, 0x2e, 0xbe, 0x4e, 0x51, 0x6f, 0x3e, 0x60, 0x0c, 0xa0, 0xbe, 0x50, 0x01, 0x63, 0x3d, 0x2d, 0x12, 0xb7, 0xbe, 0x22, 0x63, 0xf6, 0x3d, 0x4c, 0x94, 0x26, 0xbe, 0x76, 0x5d, 0x50, 0xbe, 0x46, 0x49, 0x6f, 0xbe, 0xe0, 0x68, 0x2c, 0x3d, 0xca, 0xfc, 0x4a, 0x3e, 0x64, 0x82, 0x12, 0xbe, 0xa4, 0x21, 0xc6, 0xbd, 0xa8, 0x4e, 0xf9, 0x3d, 0xe0, 0x38, 0x6b, 0x3c, 0x2d, 0x4f, 0x24, 0xbe, 0x7e, 0xdd, 0x62, 0x3e, 0x24, 0x9a, 0x82, 0xbd, 0x23, 0x89, 0x6d, 0x3e, 0xec, 0x59, 0x00, 0x3e, 0x44, 0xef, 0x05, 0x3e, 0xb4, 0x64, 0x33, 0xbd, 0xb9, 0x4d, 0x7f, 0x3e, 0xf5, 0xb6, 0x57, 0x3e, 0x5d, 0xfb, 0x13, 0xbe, 0x9b, 0x76, 0x16, 0x3e, 0xb4, 0x66, 0x83, 0xbe, 0x12, 0x15, 0x1c, 0x3e, 0x58, 0x5c, 0x4b, 0xbd, 0xef, 0x63, 0x72, 0xbe, 0x99, 0x84, 0x4b, 0xbe, 0xd8, 0x17, 0x6a, 0x3d, 0x4d, 0x74, 0x2c, 0xbe, 0x84, 0x6f, 0x3a, 0xbd, 0xe5, 0xe3, 0x8b, 0x3e, 0x02, 0x78, 0x6b, 0x3e, 0x2c, 0x06, 0x9e, 0x3e, 0x41, 0x29, 0x88, 0xbe, 0x5e, 0x43, 0x5d, 0x3e, 0x2a, 0xcb, 0xf4, 0x3d, 0xef, 0x85, 0x83, 0x3e, 0x8d, 0x07, 0x5c, 0xbe, 0x3c, 0x4e, 0x16, 0xbe, 0x82, 0xe7, 0x26, 0x3e, 0x6f, 0x09, 0x72, 0x3e, 0x7a, 0x62, 0x25, 0x3e, 0x56, 0xd3, 0xd7, 0xbd, 0x99, 0x32, 0x93, 0x3d, 0x80, 0x00, 0x3a, 0xbb, 0xb1, 0x68, 0xd0, 0x3d, 0x85, 0x8d, 0xc3, 0xbe, 0x20, 0x4f, 0x58, 0x3d, 0x91, 0x49, 0x8d, 0xbd, 0x1f, 0x0f, 0x8c, 0x3e, 0xff, 0xf7, 0x99, 0xbe, 0x85, 0x25, 0x89, 0x3e, 0xc6, 0x54, 0x94, 0xbe, 0xe3, 0x66, 0x67, 0xbe, 0xf0, 0xe0, 0xa5, 0x3c, 0x2d, 0x63, 0x51, 0xbe, 0xf5, 0x21, 0x28, 0xbe, 0x27, 0xdc, 0xa4, 0xbe, 0x5c, 0xea, 0xb2, 0xbd, 0x1d, 0x13, 0xa0, 0xbe, 0x04, 0x5f, 0x0d, 0xbe, 0xef, 0xce, 0x82, 0x3c, 0xed, 0x70, 0x97, 0x3e, 0x7f, 0x79, 0x0e, 0xbe, 0xa5, 0x2e, 0xbf, 0xbe, 0x93, 0xbb, 0x02, 0x3e, 0x3b, 0xa3, 0xd4, 0xbd, 0x9a, 0x0e, 0x98, 0xbe, 0xc9, 0x6f, 0x92, 0x3e, 0x34, 0xef, 0xa8, 0xbe, 0xd1, 0xe0, 0x00, 0xbe, 0xdf, 0xe0, 0xe2, 0xbc, 0x63, 0x2d, 0xad, 0xbe, 0x5c, 0x6d, 0x82, 0xbe, 0x3f, 0xbf, 0x94, 0x3e, 0xad, 0x1b, 0xcb, 0x3e, 0xe1, 0xfe, 0xa8, 0xbe, 0x31, 0x5d, 0x8a, 0x3e, 0x56, 0x2a, 0x95, 0xbd, 0x88, 0x63, 0x8a, 0xbe, 0x5f, 0x84, 0xd6, 0xbe, 0xf3, 0xcd, 0x8c, 0x3e, 0x3c, 0x45, 0x9c, 0xbe, 0x59, 0x6a, 0x75, 0xbe, 0xac, 0x15, 0x3b, 0xbe, 0xb5, 0x8f, 0xdf, 0x3c, 0x1e, 0x37, 0x5a, 0x3e, 0x41, 0xf2, 0x42, 0x3e, 0x6c, 0x6c, 0x4a, 0x3e, 0x24, 0x40, 0x94, 0x3d, 0xb0, 0x66, 0xf0, 0xbc, 0x05, 0x26, 0x3b, 0xbe, 0x53, 0x46, 0x2d, 0xbe, 0x90, 0xe5, 0xe8, 0x3e, 0x58, 0x4e, 0xc9, 0xbd, 0x78, 0x2d, 0x71, 0x3d, 0xc3, 0x14, 0xd6, 0x3e, 0x63, 0x7b, 0x7b, 0x3e, 0xa2, 0x69, 0x72, 0xbd, 0xe3, 0x94, 0x9a, 0x3e, 0x5c, 0x0f, 0xb6, 0x3d, 0xf8, 0xa0, 0x4b, 0x3d, 0xd7, 0xd4, 0x99, 0xbe, 0x5d, 0xa1, 0x60, 0x3e, 0xea, 0xe0, 0x7c, 0xbe, 0xde, 0xf0, 0x38, 0x3e, 0xf2, 0x56, 0x71, 0x3e, 0xad, 0xe5, 0x2a, 0xbe, 0x58, 0xb5, 0x97, 0xbe, 0xbe, 0xbb, 0xa3, 0x3e, 0x81, 0x61, 0x42, 0x3e, 0xcd, 0xc8, 0x45, 0xbe, 0xe2, 0x2e, 0x17, 0x3e, 0xfc, 0xdd, 0xa0, 0x3d, 0xba, 0x41, 0x95, 0xbe, 0x23, 0xfb, 0xb2, 0x3c, 0x8a, 0x1e, 0x6b, 0x3e, 0x06, 0xf4, 0x46, 0xbe, 0x10, 0x12, 0x24, 0xbd, 0xf5, 0x15, 0x97, 0xbe, 0xec, 0x68, 0xf1, 0xbd, 0x89, 0xe0, 0x8c, 0x3e, 0x3a, 0xf3, 0xfb, 0xbd, 0xa7, 0x85, 0x96, 0x3e, 0x67, 0xda, 0x1a, 0xbc, 0x06, 0x78, 0x81, 0x3e, 0x61, 0x92, 0xb4, 0x3e, 0x1b, 0xea, 0x87, 0xbe, 0xf4, 0x2c, 0xa3, 0x3d, 0xb4, 0x59, 0xf9, 0x3d, 0x30, 0xca, 0x3b, 0xbe, 0xa8, 0x28, 0x3c, 0xbd, 0xd3, 0x09, 0xb3, 0xbe, 0x50, 0xdf, 0x16, 0x3e, 0x9e, 0xf1, 0xaf, 0xbe, 0x7c, 0x3b, 0x83, 0x3d, 0x5a, 0x8d, 0xb1, 0xbe, 0x00, 0x12, 0xa6, 0x3d, 0x80, 0x1b, 0x92, 0x3c, 0x94, 0x34, 0xfe, 0x3d, 0xec, 0xd5, 0x20, 0xbe, 0xe2, 0x77, 0x24, 0x3e, 0xa2, 0x77, 0x17, 0x3e, 0x36, 0x61, 0x6b, 0xbe, 0xf2, 0x6d, 0x42, 0x3e, 0x46, 0x08, 0x44, 0x3e, 0x1d, 0x23, 0x0b, 0xbe, 0xf8, 0x28, 0xe2, 0x3d, 0x3f, 0x81, 0x67, 0xbe, 0xce, 0xe5, 0x57, 0x3e, 0x60, 0xcb, 0x9e, 0xbc, 0x3c, 0xab, 0xe6, 0xbd, 0x25, 0x04, 0x69, 0xbe, 0x16, 0x39, 0x43, 0x3e, 0xb5, 0xe5, 0x9c, 0xbe, 0x56, 0x90, 0x89, 0xbe, 0x6c, 0xd7, 0xb1, 0xbd, 0xa2, 0xd2, 0x86, 0xbe, 0x22, 0x73, 0x51, 0xbe, 0xfe, 0x03, 0x11, 0x3e, 0xc0, 0x89, 0x12, 0xbc, 0xaa, 0xa5, 0x93, 0xbe, 0x80, 0xf6, 0xa8, 0xbb, 0xb9, 0x01, 0xa0, 0x3e, 0x84, 0x11, 0x90, 0xbe, 0xaa, 0xf4, 0x78, 0x3e, 0x60, 0x94, 0x46, 0xbd, 0x2e, 0x20, 0x2c, 0x3e, 0x76, 0x3d, 0x7f, 0x3e, 0xf7, 0xeb, 0x8b, 0x3e, 0xfc, 0xc0, 0x85, 0xbe, 0x3c, 0x8d, 0xf1, 0x3d, 0x2a, 0x88, 0x52, 0xbe, 0x50, 0xab, 0x62, 0x3d, 0x14, 0xc0, 0x6a, 0xbe, 0xed, 0xdb, 0xa5, 0x3e, 0xf4, 0x7c, 0xdb, 0x3d, 0x08, 0xae, 0x38, 0xbd, 0x27, 0x7a, 0x4a, 0xbe, 0x3c, 0x76, 0xae, 0xbe, 0x08, 0x2b, 0x8d, 0xbd, 0x15, 0x04, 0x90, 0x3e, 0x16, 0xe4, 0x3a, 0x3e, 0x90, 0x42, 0xea, 0x3d, 0xb1, 0x0a, 0x03, 0xbe, 0xe5, 0x72, 0x8a, 0x3e, 0xa0, 0xa3, 0x11, 0x3d, 0xca, 0x30, 0x96, 0xbe, 0x46, 0x7d, 0x88, 0xbe, 0x02, 0x0c, 0x0d, 0xbe, 0xb0, 0xcc, 0xc8, 0xbc, 0xf0, 0xd3, 0xbd, 0x3c, 0x66, 0x49, 0x2b, 0x3e, 0xb4, 0xad, 0xb9, 0xbd, 0x4a, 0x67, 0x6a, 0xbe, 0x86, 0xa7, 0x27, 0x3e, 0x3a, 0xc7, 0x78, 0x3e, 0x7d, 0xaa, 0x5d, 0xbe, 0xd0, 0xe3, 0x37, 0x3e, 0x79, 0xbd, 0xc1, 0xbe, 0x0c, 0xb7, 0xea, 0xbc, 0xcd, 0xa1, 0x87, 0x3e, 0x05, 0x7d, 0xa1, 0xbe, 0x5b, 0xad, 0xc7, 0xbe, 0x20, 0xc6, 0xd6, 0xbc, 0xfa, 0x94, 0x05, 0xbe, 0xa8, 0xeb, 0x9c, 0xbe, 0xbf, 0x44, 0xac, 0x3e, 0x6e, 0x29, 0x38, 0x3e, 0xd2, 0x04, 0x5a, 0x3e, 0x86, 0x4d, 0x4f, 0xbe, 0x8d, 0x5f, 0x85, 0xbd, 0xb6, 0x3a, 0xf0, 0xbd, 0x71, 0xb4, 0x88, 0xbd, 0xd0, 0x6b, 0xe6, 0x3d, 0x83, 0xb2, 0xb8, 0xbd, 0xba, 0x15, 0xca, 0xbe, 0x56, 0xee, 0x3a, 0xbe, 0x40, 0xa3, 0xdc, 0xbd, 0xf2, 0x60, 0x38, 0xbe, 0x77, 0xc9, 0x7d, 0x3e, 0x27, 0x6a, 0x2a, 0x3e, 0x52, 0x1e, 0x02, 0x3e, 0x9b, 0x8d, 0xaf, 0xbe, 0x51, 0x73, 0x44, 0x3d, 0x45, 0x4c, 0x8d, 0x3d, 0x4b, 0x59, 0xf4, 0x3d, 0x77, 0xa0, 0x53, 0x3e, 0x4d, 0x4a, 0x3c, 0xbe, 0x69, 0xfb, 0xe3, 0xbd, 0x00, 0x43, 0x3b, 0x3d, 0x61, 0xcc, 0x7c, 0xbe, 0x4c, 0xcb, 0xca, 0xbd, 0x7e, 0xf8, 0x1f, 0x3e, 0x1c, 0x06, 0x9c, 0xbe, 0x2a, 0x53, 0x36, 0x3e, 0x28, 0x12, 0xa5, 0x3d, 0xd6, 0x0d, 0x2c, 0x3e, 0x93, 0x2f, 0xa2, 0x3e, 0x24, 0xdb, 0xa9, 0x3d, 0x71, 0xda, 0xa4, 0xbe, 0xd6, 0x20, 0x9a, 0xbe, 0xc8, 0xfc, 0x22, 0x3d, 0xc9, 0xa5, 0x82, 0x3e, 0x54, 0x24, 0x91, 0xbe, 0xc7, 0xdd, 0x83, 0x3e, 0x28, 0xbb, 0xb7, 0xbd, 0xdb, 0x43, 0xa1, 0xbe, 0xd8, 0x02, 0x6d, 0xbe, 0xd0, 0x5a, 0x85, 0xbd, 0x50, 0x7e, 0xef, 0x3d, 0x93, 0x42, 0xae, 0x3e, 0x6f, 0x9f, 0xa8, 0x3e, 0x96, 0x0e, 0x0f, 0xbe, 0xa1, 0xeb, 0x09, 0xbe, 0x2f, 0x28, 0x65, 0xbe, 0x12, 0x64, 0x4b, 0xbe, 0xab, 0x07, 0x20, 0xbe, 0xb3, 0xa9, 0x9f, 0xbe, 0xc5, 0xd5, 0xaa, 0x3e, 0x58, 0xf6, 0x0a, 0xbe, 0xbc, 0x91, 0xdb, 0x3d, 0x2b, 0xca, 0x68, 0x3e, 0x22, 0xbe, 0x30, 0x3e, 0x93, 0xc3, 0x96, 0xbd, 0x40, 0xc0, 0x7f, 0x3d, 0xd4, 0x22, 0x8e, 0x3d, 0xf3, 0x76, 0xc4, 0xbe, 0x6a, 0xa5, 0xf1, 0xbd, 0xbb, 0x8e, 0x7a, 0x3e, 0xdf, 0x0d, 0x9d, 0x3e, 0x1a, 0x8d, 0x38, 0x3e, 0xd4, 0x70, 0x58, 0x3e, 0x07, 0x37, 0x87, 0xbe, 0x89, 0xfd, 0xdf, 0xbd, 0x42, 0x47, 0x4f, 0xbe, 0xf7, 0xf1, 0xc6, 0x3e, 0x02, 0x4d, 0x79, 0xbe, 0x08, 0x23, 0x58, 0x3d, 0x50, 0x88, 0xa2, 0xbe, 0x63, 0x10, 0x81, 0xbd, 0xc0, 0x3c, 0xef, 0xbb, 0x42, 0xb2, 0x7c, 0xbe, 0x08, 0xa3, 0x3a, 0x3d, 0x67, 0xa9, 0xf1, 0xbd, 0x60, 0x31, 0x95, 0x3e, 0x36, 0x87, 0x89, 0xbe, 0xb0, 0x44, 0x04, 0x3d, 0x99, 0xa8, 0xab, 0xbd, 0xd5, 0x3e, 0x11, 0xbf, 0xd5, 0x89, 0xbf, 0xbe, 0x35, 0xfb, 0x05, 0xbe, 0x47, 0xdd, 0x85, 0xbe, 0x61, 0xb2, 0xdd, 0xbd, 0xab, 0x4a, 0x7b, 0x3e, 0x08, 0x96, 0xce, 0xbd, 0xbe, 0xd9, 0xf4, 0x3c, 0x1e, 0xd9, 0x2a, 0x3e, 0x35, 0x96, 0x08, 0xbe, 0x5d, 0x82, 0x0e, 0x3e, 0x34, 0x86, 0xad, 0xbe, 0xab, 0x1e, 0x44, 0xbc, 0x0d, 0xcc, 0x28, 0xbe, 0x60, 0x07, 0x03, 0x3c, 0x82, 0x4d, 0x92, 0xbe, 0x3c, 0xd3, 0x87, 0x3d, 0xc8, 0xa3, 0xc1, 0xbe, 0x47, 0x0f, 0x78, 0xbe, 0xd1, 0x45, 0x79, 0xbe, 0x40, 0x64, 0x05, 0xbe, 0xcf, 0x13, 0x9c, 0xbe, 0x96, 0x29, 0xd4, 0xbe, 0x86, 0xe6, 0x2d, 0x3e, 0x5c, 0x5f, 0x92, 0x3d, 0xd2, 0xcf, 0x7e, 0x3e, 0x40, 0x0d, 0xf6, 0xbd, 0xee, 0x43, 0xc0, 0xbe, 0x6d, 0x64, 0x9b, 0x3e, 0x60, 0x57, 0x30, 0xbe, 0x7f, 0xc4, 0xa1, 0x3e, 0xda, 0x0b, 0xa5, 0x3e, 0x0a, 0x2a, 0xc9, 0x3e, 0x63, 0x55, 0x8d, 0x3e, 0x3c, 0x00, 0xa3, 0x3d, 0xf1, 0x4f, 0xc8, 0x3c, 0x98, 0x1a, 0x87, 0xbb, 0x98, 0x05, 0x5f, 0xbd, 0xe8, 0x85, 0x95, 0x3d, 0x4a, 0x55, 0xe0, 0xbd, 0xec, 0xb4, 0xe9, 0x3d, 0xba, 0x52, 0x18, 0x3e, 0xa6, 0xa4, 0x42, 0x3e, 0x9e, 0x65, 0x2a, 0xbe, 0xf1, 0xaf, 0xf1, 0x3d, 0xe3, 0x88, 0x12, 0x3d, 0xbc, 0xb9, 0x0d, 0x3e, 0x07, 0xaf, 0xb9, 0xbd, 0x85, 0xd0, 0x6d, 0x3d, 0x9f, 0xa5, 0x52, 0x3e, 0x39, 0x10, 0xdf, 0xbe, 0x01, 0xd9, 0xa7, 0xbe, 0xe6, 0x5f, 0xfc, 0xbe, 0xb9, 0x63, 0xa2, 0xbe, 0x85, 0xef, 0x86, 0x3d, 0x0e, 0xe0, 0x42, 0x3e, 0xd4, 0xad, 0x0d, 0x3e, 0xe0, 0x9d, 0xa9, 0x3d, 0xfe, 0xe1, 0x55, 0x3e, 0xdd, 0x55, 0xad, 0xbd, 0x7e, 0xc5, 0xf7, 0xbd, 0x70, 0x07, 0x86, 0xbe, 0x0a, 0x19, 0x52, 0xbe, 0x06, 0x40, 0x33, 0x3e, 0xd3, 0xfa, 0x9f, 0x3e, 0xb3, 0xa4, 0x94, 0x3e, 0xfb, 0x7e, 0x88, 0xbe, 0xf6, 0xa6, 0x82, 0xbe, 0x42, 0xe9, 0x9b, 0x3e, 0x5c, 0x39, 0x98, 0x3e, 0x89, 0x04, 0x5a, 0xbe, 0xa6, 0xfe, 0xb0, 0x3d, 0x1b, 0x3f, 0x9f, 0x3e, 0x0f, 0xc4, 0x11, 0xbe, 0xab, 0x0a, 0xc8, 0x3e, 0x82, 0x03, 0x36, 0xbe, 0x08, 0xd5, 0x3a, 0x3e, 0x32, 0x83, 0x1b, 0x3d, 0x24, 0x38, 0xf5, 0x3d, 0xfb, 0xa7, 0x9a, 0xbe, 0x77, 0x18, 0x43, 0x3e, 0x5f, 0x96, 0x86, 0xbe, 0xeb, 0x01, 0xdd, 0x3c, 0x0c, 0xc3, 0x85, 0xbc, 0x0a, 0xe5, 0xa3, 0xbd, 0x2c, 0x13, 0xb0, 0xbe, 0x23, 0x2a, 0x11, 0xbe, 0x2f, 0x72, 0x78, 0x3e, 0x75, 0x7b, 0x9e, 0x3e, 0xe6, 0x7d, 0x00, 0xbe, 0x29, 0x4a, 0xa8, 0x3e, 0x51, 0xbf, 0x94, 0xbe, 0x8f, 0x67, 0xba, 0x3e, 0xb3, 0xa2, 0x0b, 0xbe, 0xd1, 0x19, 0x9e, 0x3e, 0x1c, 0x3e, 0xb0, 0x3e, 0x80, 0xf5, 0x92, 0x3e, 0x11, 0xee, 0x8e, 0x3e, 0x96, 0xd2, 0x87, 0xbd, 0x88, 0x9c, 0x6a, 0xbe, 0x7a, 0x73, 0x4d, 0xbe, 0xdd, 0x2c, 0x7b, 0xbe, 0x89, 0x2b, 0x10, 0xbe, 0x8b, 0x07, 0x78, 0x3e, 0xc9, 0x1a, 0x45, 0xbe, 0x24, 0x4f, 0x80, 0xbd, 0x87, 0x71, 0xb7, 0xbe, 0x0b, 0xd7, 0xa3, 0x3e, 0x2d, 0x81, 0x4e, 0x3e, 0xaa, 0xec, 0x88, 0x3e, 0x2b, 0x16, 0x45, 0xbe, 0xd4, 0x23, 0xe6, 0x3e, 0x76, 0x1a, 0xd9, 0xbe, 0xab, 0x20, 0xdb, 0x3e, 0x5f, 0x76, 0xb9, 0x3e, 0xf9, 0x44, 0x5c, 0x3e, 0xc0, 0xe4, 0xfb, 0xbd, 0xc3, 0xc6, 0x31, 0xbe, 0x3d, 0x0f, 0x08, 0x3f, 0xa9, 0x1c, 0xa7, 0x3d, 0x06, 0x14, 0x84, 0xbe, 0x38, 0x3a, 0x3c, 0x3d, 0x43, 0x9d, 0x92, 0xbe, 0x7b, 0x29, 0xa4, 0x3e, 0xa8, 0xbb, 0xa4, 0xbe, 0xb8, 0x60, 0xa2, 0xbe, 0x10, 0x1f, 0xf7, 0x3c, 0xa3, 0x55, 0x32, 0xbe, 0x4b, 0x9e, 0x82, 0xbe, 0x83, 0x37, 0x0f, 0xbe, 0xf9, 0xb7, 0x7b, 0x3e, 0x21, 0x87, 0xd6, 0x3e, 0xd4, 0x85, 0x44, 0xbe, 0x91, 0xa1, 0x9d, 0x3e, 0x0f, 0x7b, 0xfb, 0x3c, 0xfa, 0xa3, 0xbc, 0x3c, 0xba, 0x06, 0x71, 0x3e, 0xda, 0x22, 0x06, 0xbe, 0xd2, 0x51, 0xdd, 0xbc, 0xd8, 0x1f, 0x70, 0xbe, 0x7e, 0xc2, 0xd5, 0xbd, 0x71, 0x71, 0xa8, 0xbd, 0xed, 0x43, 0x8b, 0x3e, 0xba, 0x56, 0x54, 0xbe, 0x1b, 0xd9, 0x85, 0x3e, 0x5a, 0x10, 0x8d, 0xbe, 0xb3, 0xea, 0x9b, 0x3e, 0x9f, 0x3b, 0x9f, 0xbd, 0x2e, 0x20, 0x75, 0x3e, 0x0a, 0x44, 0x66, 0x3e, 0x62, 0x65, 0x7a, 0xbe, 0x60, 0xc0, 0x4a, 0x3e, 0x96, 0xc7, 0x63, 0x3e, 0xc0, 0x79, 0xcd, 0x3b, 0xdf, 0xf9, 0x85, 0x3e, 0x90, 0x61, 0xaa, 0xbe, 0x0c, 0xc6, 0x8f, 0xbe, 0x30, 0xff, 0xde, 0xbc, 0xae, 0x23, 0x14, 0x3e, 0xca, 0x26, 0xa8, 0x3e, 0x93, 0xb8, 0xab, 0x3e, 0x0e, 0xd5, 0xb1, 0xbe, 0x4c, 0x87, 0xd0, 0xbd, 0x90, 0x74, 0x41, 0x3e, 0x07, 0xde, 0x80, 0x3e, 0x5e, 0xfe, 0xff, 0xff, 0x04, 0x00, 0x00, 0x00, 0x00, 0x01, 0x00, 0x00, 0x6d, 0xc6, 0xab, 0xbe, 0x00, 0xf4, 0xea, 0x3e, 0xde, 0x56, 0xcc, 0x3e, 0x45, 0x71, 0x66, 0x3e, 0xf2, 0x22, 0x2b, 0xbf, 0x79, 0x1a, 0x9b, 0xbd, 0xa8, 0x62, 0xa2, 0xbe, 0x40, 0x57, 0x9e, 0xbc, 0xee, 0xfb, 0xbe, 0x3e, 0x3a, 0x7e, 0x98, 0xbe, 0xf3, 0xcc, 0xee, 0x3e, 0xb0, 0xd4, 0x9e, 0xbf, 0xf4, 0xac, 0x66, 0xbc, 0x89, 0xcb, 0x76, 0xbe, 0xb3, 0xee, 0xa5, 0x3e, 0x7e, 0x5f, 0xf5, 0x3e, 0x9a, 0x7e, 0xd2, 0xbe, 0x8b, 0x65, 0x9e, 0xbe, 0xa0, 0x09, 0xae, 0xbd, 0xd6, 0x57, 0x1c, 0x3e, 0x7c, 0x0e, 0x09, 0xbe, 0x0f, 0x36, 0xff, 0xbe, 0xd4, 0x32, 0x94, 0x3e, 0x88, 0x58, 0xf9, 0x3e, 0x0f, 0xcd, 0x30, 0xbd, 0x40, 0xae, 0x01, 0x3f, 0x59, 0x4f, 0x74, 0x3d, 0x50, 0xe8, 0x1d, 0xbf, 0x77, 0x3f, 0x65, 0xbe, 0x59, 0x39, 0x3f, 0xbe, 0xff, 0xa4, 0xca, 0x3e, 0xda, 0xc1, 0xbd, 0xbe, 0x96, 0x82, 0x94, 0xbb, 0xa1, 0x26, 0xe9, 0xbe, 0x9e, 0xfe, 0x4f, 0xbe, 0xfa, 0xf5, 0xe8, 0x3d, 0x77, 0x00, 0xcf, 0x3c, 0x70, 0x1a, 0xea, 0xbe, 0xf8, 0x6d, 0xf2, 0x3d, 0x14, 0x10, 0x98, 0xbd, 0x1a, 0xd3, 0x03, 0x3b, 0xa8, 0x38, 0xbb, 0x3d, 0xa1, 0xaa, 0xfd, 0xbe, 0x24, 0x5b, 0x7b, 0xbe, 0xb9, 0x7b, 0xed, 0x3d, 0x68, 0xd9, 0x77, 0x3e, 0x7b, 0xc5, 0xbe, 0xbd, 0x2b, 0x99, 0x85, 0x3e, 0x97, 0x43, 0xe7, 0xbe, 0x63, 0x24, 0xc7, 0xbe, 0x78, 0xb3, 0x86, 0x3d, 0xc2, 0xcf, 0xa7, 0xbd, 0x77, 0x5a, 0x3c, 0x3f, 0x00, 0xd7, 0x8c, 0x3d, 0x46, 0xe4, 0x89, 0xbe, 0x02, 0x2b, 0x05, 0xbe, 0xe5, 0x4f, 0xa7, 0xbd, 0xbc, 0xf0, 0xf0, 0x3e, 0x37, 0x92, 0x45, 0xbe, 0xb5, 0x70, 0x42, 0x3f, 0xb5, 0xcc, 0x01, 0x3f, 0x9f, 0xfa, 0x53, 0x3e, 0x13, 0xd9, 0x7c, 0xbf, 0x1d, 0xff, 0xd2, 0x3e, 0x64, 0xfa, 0xff, 0xff, 0x68, 0xfa, 0xff, 0xff, 0x0f, 0x00, 0x00, 0x00, 0x4d, 0x4c, 0x49, 0x52, 0x20, 0x43, 0x6f, 0x6e, 0x76, 0x65, 0x72, 0x74, 0x65, 0x64, 0x2e, 0x00, 0x01, 0x00, 0x00, 0x00, 0x14, 0x00, 0x00, 0x00, 0x00, 0x00, 0x0e, 0x00, 0x18, 0x00, 0x14, 0x00, 0x10, 0x00, 0x0c, 0x00, 0x08, 0x00, 0x04, 0x00, 0x0e, 0x00, 0x00, 0x00, 0x14, 0x00, 0x00, 0x00, 0x1c, 0x00, 0x00, 0x00, 0x24, 0x01, 0x00, 0x00, 0x28, 0x01, 0x00, 0x00, 0x2c, 0x01, 0x00, 0x00, 0x04, 0x00, 0x00, 0x00, 0x6d, 0x61, 0x69, 0x6e, 0x00, 0x00, 0x00, 0x00, 0x04, 0x00, 0x00, 0x00, 0xcc, 0x00, 0x00, 0x00, 0x84, 0x00, 0x00, 0x00, 0x50, 0x00, 0x00, 0x00, 0x14, 0x00, 0x00, 0x00, 0x00, 0x00, 0x0e, 0x00, 0x1a, 0x00, 0x14, 0x00, 0x10, 0x00, 0x0c, 0x00, 0x0b, 0x00, 0x04, 0x00, 0x0e, 0x00, 0x00, 0x00, 0x1c, 0x00, 0x00, 0x00, 0x00, 0x00, 0x00, 0x09, 0x1c, 0x00, 0x00, 0x00, 0x20, 0x00, 0x00, 0x00, 0x01, 0x00, 0x00, 0x00, 0x00, 0x00, 0x06, 0x00, 0x08, 0x00, 0x04, 0x00, 0x06, 0x00, 0x00, 0x00, 0x00, 0x00, 0x80, 0x3f, 0x01, 0x00, 0x00, 0x00, 0x0a, 0x00, 0x00, 0x00, 0x01, 0x00, 0x00, 0x00, 0x09, 0x00, 0x00, 0x00, 0x9a, 0xff, 0xff, 0xff, 0x10, 0x00, 0x00, 0x00, 0x00, 0x00, 0x00, 0x08, 0x0c, 0x00, 0x00, 0x00, 0x10, 0x00, 0x00, 0x00, 0x2c, 0xfb, 0xff, 0xff, 0x01, 0x00, 0x00, 0x00, 0x09, 0x00, 0x00, 0x00, 0x03, 0x00, 0x00, 0x00, 0x08, 0x00, 0x00, 0x00, 0x01, 0x00, 0x00, 0x00, 0x03, 0x00, 0x00, 0x00, 0xca, 0xff, 0xff, 0xff, 0x10, 0x00, 0x00, 0x00, 0x00, 0x00, 0x00, 0x08, 0x10, 0x00, 0x00, 0x00, 0x14, 0x00, 0x00, 0x00, 0xba, 0xff, 0xff, 0xff, 0x00, 0x00, 0x00, 0x01, 0x01, 0x00, 0x00, 0x00, 0x08, 0x00, 0x00, 0x00, 0x03, 0x00, 0x00, 0x00, 0x07, 0x00, 0x00, 0x00, 0x02, 0x00, 0x00, 0x00, 0x04, 0x00, 0x00, 0x00, 0x00, 0x00, 0x0e, 0x00, 0x16, 0x00, 0x00, 0x00, 0x10, 0x00, 0x0c, 0x00, 0x0b, 0x00, 0x04, 0x00, 0x0e, 0x00, 0x00, 0x00, 0x18, 0x00, 0x00, 0x00, 0x00, 0x00, 0x00, 0x08, 0x18, 0x00, 0x00, 0x00, 0x1c, 0x00, 0x00, 0x00, 0x00, 0x00, 0x06, 0x00, 0x08, 0x00, 0x07, 0x00, 0x06, 0x00, 0x00, 0x00, 0x00, 0x00, 0x00, 0x01, 0x01, 0x00, 0x00, 0x00, 0x07, 0x00, 0x00, 0x00, 0x03, 0x00, 0x00, 0x00, 0x00, 0x00, 0x00, 0x00, 0x06, 0x00, 0x00, 0x00, 0x05, 0x00, 0x00, 0x00, 0x01, 0x00, 0x00, 0x00, 0x0a, 0x00, 0x00, 0x00, 0x01, 0x00, 0x00, 0x00, 0x00, 0x00, 0x00, 0x00, 0x0b, 0x00, 0x00, 0x00, 0xfc, 0x03, 0x00, 0x00, 0xa4, 0x03, 0x00, 0x00, 0x4c, 0x03, 0x00, 0x00, 0x10, 0x03, 0x00, 0x00, 0xb4, 0x02, 0x00, 0x00, 0x5c, 0x02, 0x00, 0x00, 0x10, 0x02, 0x00, 0x00, 0x7c, 0x01, 0x00, 0x00, 0xe0, 0x00, 0x00, 0x00, 0x60, 0x00, 0x00, 0x00, 0x04, 0x00, 0x00, 0x00, 0x46, 0xfc, 0xff, 0xff, 0x00, 0x00, 0x00, 0x01, 0x14, 0x00, 0x00, 0x00, 0x1c, 0x00, 0x00, 0x00, 0x1c, 0x00, 0x00, 0x00, 0x0b, 0x00, 0x00, 0x00, 0x34, 0x00, 0x00, 0x00, 0x02, 0x00, 0x00, 0x00, 0xff, 0xff, 0xff, 0xff, 0x04, 0x00, 0x00, 0x00, 0x30, 0xfc, 0xff, 0xff, 0x1b, 0x00, 0x00, 0x00, 0x53, 0x74, 0x61, 0x74, 0x65, 0x66, 0x75, 0x6c, 0x50, 0x61, 0x72, 0x74, 0x69, 0x74, 0x69, 0x6f, 0x6e, 0x65, 0x64, 0x43, 0x61, 0x6c, 0x6c, 0x5f, 0x31, 0x3a, 0x30, 0x00, 0x02, 0x00, 0x00, 0x00, 0x01, 0x00, 0x00, 0x00, 0x04, 0x00, 0x00, 0x00, 0x9e, 0xfc, 0xff, 0xff, 0x00, 0x00, 0x00, 0x01, 0x14, 0x00, 0x00, 0x00, 0x1c, 0x00, 0x00, 0x00, 0x1c, 0x00, 0x00, 0x00, 0x0a, 0x00, 0x00, 0x00, 0x58, 0x00, 0x00, 0x00, 0x02, 0x00, 0x00, 0x00, 0xff, 0xff, 0xff, 0xff, 0x04, 0x00, 0x00, 0x00, 0x88, 0xfc, 0xff, 0xff, 0x3c, 0x00, 0x00, 0x00, 0x73, 0x65, 0x71, 0x75, 0x65, 0x6e, 0x74, 0x69, 0x61, 0x6c, 0x5f, 0x31, 0x2f, 0x64, 0x65, 0x6e, 0x73, 0x65, 0x5f, 0x32, 0x5f, 0x31, 0x2f, 0x4d, 0x61, 0x74, 0x4d, 0x75, 0x6c, 0x3b, 0x73, 0x65, 0x71, 0x75, 0x65, 0x6e, 0x74, 0x69, 0x61, 0x6c, 0x5f, 0x31, 0x2f, 0x64, 0x65, 0x6e, 0x73, 0x65, 0x5f, 0x32, 0x5f, 0x31, 0x2f, 0x42, 0x69, 0x61, 0x73, 0x41, 0x64, 0x64, 0x00, 0x00, 0x00, 0x00, 0x02, 0x00, 0x00, 0x00, 0x01, 0x00, 0x00, 0x00, 0x04, 0x00, 0x00, 0x00, 0x1a, 0xfd, 0xff, 0xff, 0x00, 0x00, 0x00, 0x01, 0x14, 0x00, 0x00, 0x00, 0x1c, 0x00, 0x00, 0x00, 0x1c, 0x00, 0x00, 0x00, 0x09, 0x00, 0x00, 0x00, 0x74, 0x00, 0x00, 0x00, 0x02, 0x00, 0x00, 0x00, 0xff, 0xff, 0xff, 0xff, 0x10, 0x00, 0x00, 0x00, 0x04, 0xfd, 0xff, 0xff, 0x58, 0x00, 0x00, 0x00, 0x73, 0x65, 0x71, 0x75, 0x65, 0x6e, 0x74, 0x69, 0x61, 0x6c, 0x5f, 0x31, 0x2f, 0x64, 0x65, 0x6e, 0x73, 0x65, 0x5f, 0x31, 0x5f, 0x32, 0x2f, 0x4d, 0x61, 0x74, 0x4d, 0x75, 0x6c, 0x3b, 0x73, 0x65, 0x71, 0x75, 0x65, 0x6e, 0x74, 0x69, 0x61, 0x6c, 0x5f, 0x31, 0x2f, 0x64, 0x65, 0x6e, 0x73, 0x65, 0x5f, 0x31, 0x5f, 0x32, 0x2f, 0x52, 0x65, 0x6c, 0x75, 0x3b, 0x73, 0x65, 0x71, 0x75, 0x65, 0x6e, 0x74, 0x69, 0x61, 0x6c, 0x5f, 0x31, 0x2f, 0x64, 0x65, 0x6e, 0x73, 0x65, 0x5f, 0x31, 0x5f, 0x32, 0x2f, 0x42, 0x69, 0x61, 0x73, 0x41, 0x64, 0x64, 0x00, 0x00, 0x00, 0x00, 0x02, 0x00, 0x00, 0x00, 0x01, 0x00, 0x00, 0x00, 0x10, 0x00, 0x00, 0x00, 0xb2, 0xfd, 0xff, 0xff, 0x00, 0x00, 0x00, 0x01, 0x14, 0x00, 0x00, 0x00, 0x1c, 0x00, 0x00, 0x00, 0x1c, 0x00, 0x00, 0x00, 0x08, 0x00, 0x00, 0x00, 0x6c, 0x00, 0x00, 0x00, 0x02, 0x00, 0x00, 0x00, 0xff, 0xff, 0xff, 0xff, 0x20, 0x00, 0x00, 0x00, 0x9c, 0xfd, 0xff, 0xff, 0x52, 0x00, 0x00, 0x00, 0x73, 0x65, 0x71, 0x75, 0x65, 0x6e, 0x74, 0x69, 0x61, 0x6c, 0x5f, 0x31, 0x2f, 0x64, 0x65, 0x6e, 0x73, 0x65, 0x5f, 0x31, 0x2f, 0x4d, 0x61, 0x74, 0x4d, 0x75, 0x6c, 0x3b, 0x73, 0x65, 0x71, 0x75, 0x65, 0x6e, 0x74, 0x69, 0x61, 0x6c, 0x5f, 0x31, 0x2f, 0x64, 0x65, 0x6e, 0x73, 0x65, 0x5f, 0x31, 0x2f, 0x52, 0x65, 0x6c, 0x75, 0x3b, 0x73, 0x65, 0x71, 0x75, 0x65, 0x6e, 0x74, 0x69, 0x61, 0x6c, 0x5f, 0x31, 0x2f, 0x64, 0x65, 0x6e, 0x73, 0x65, 0x5f, 0x31, 0x2f, 0x42, 0x69, 0x61, 0x73, 0x41, 0x64, 0x64, 0x00, 0x00, 0x02, 0x00, 0x00, 0x00, 0x01, 0x00, 0x00, 0x00, 0x20, 0x00, 0x00, 0x00, 0x96, 0xfe, 0xff, 0xff, 0x00, 0x00, 0x00, 0x01, 0x10, 0x00, 0x00, 0x00, 0x10, 0x00, 0x00, 0x00, 0x07, 0x00, 0x00, 0x00, 0x28, 0x00, 0x00, 0x00, 0x1c, 0xfe, 0xff, 0xff, 0x1b, 0x00, 0x00, 0x00, 0x73, 0x65, 0x71, 0x75, 0x65, 0x6e, 0x74, 0x69, 0x61, 0x6c, 0x5f, 0x31, 0x2f, 0x64, 0x65, 0x6e, 0x73, 0x65, 0x5f, 0x31, 0x2f, 0x4d, 0x61, 0x74, 0x4d, 0x75, 0x6c, 0x00, 0x02, 0x00, 0x00, 0x00, 0x20, 0x00, 0x00, 0x00, 0x05, 0x00, 0x00, 0x00, 0xde, 0xfe, 0xff, 0xff, 0x00, 0x00, 0x00, 0x01, 0x10, 0x00, 0x00, 0x00, 0x10, 0x00, 0x00, 0x00, 0x06, 0x00, 0x00, 0x00, 0x38, 0x00, 0x00, 0x00, 0x64, 0xfe, 0xff, 0xff, 0x2b, 0x00, 0x00, 0x00, 0x73, 0x65, 0x71, 0x75, 0x65, 0x6e, 0x74, 0x69, 0x61, 0x6c, 0x5f, 0x31, 0x2f, 0x64, 0x65, 0x6e, 0x73, 0x65, 0x5f, 0x31, 0x2f, 0x42, 0x69, 0x61, 0x73, 0x41, 0x64, 0x64, 0x2f, 0x52, 0x65, 0x61, 0x64, 0x56, 0x61, 0x72, 0x69, 0x61, 0x62, 0x6c, 0x65, 0x4f, 0x70, 0x00, 0x01, 0x00, 0x00, 0x00, 0x20, 0x00, 0x00, 0x00, 0x32, 0xff, 0xff, 0xff, 0x00, 0x00, 0x00, 0x01, 0x10, 0x00, 0x00, 0x00, 0x10, 0x00, 0x00, 0x00, 0x05, 0x00, 0x00, 0x00, 0x3c, 0x00, 0x00, 0x00, 0xb8, 0xfe, 0xff, 0xff, 0x2d, 0x00, 0x00, 0x00, 0x73, 0x65, 0x71, 0x75, 0x65, 0x6e, 0x74, 0x69, 0x61, 0x6c, 0x5f, 0x31, 0x2f, 0x64, 0x65, 0x6e, 0x73, 0x65, 0x5f, 0x31, 0x5f, 0x32, 0x2f, 0x42, 0x69, 0x61, 0x73, 0x41, 0x64, 0x64, 0x2f, 0x52, 0x65, 0x61, 0x64, 0x56, 0x61, 0x72, 0x69, 0x61, 0x62, 0x6c, 0x65, 0x4f, 0x70, 0x00, 0x00, 0x00, 0x01, 0x00, 0x00, 0x00, 0x10, 0x00, 0x00, 0x00, 0x8a, 0xff, 0xff, 0xff, 0x00, 0x00, 0x00, 0x01, 0x10, 0x00, 0x00, 0x00, 0x10, 0x00, 0x00, 0x00, 0x04, 0x00, 0x00, 0x00, 0x1c, 0x00, 0x00, 0x00, 0x10, 0xff, 0xff, 0xff, 0x0f, 0x00, 0x00, 0x00, 0x61, 0x72, 0x69, 0x74, 0x68, 0x2e, 0x63, 0x6f, 0x6e, 0x73, 0x74, 0x61, 0x6e, 0x74, 0x32, 0x00, 0x01, 0x00, 0x00, 0x00, 0x04, 0x00, 0x00, 0x00, 0xc2, 0xff, 0xff, 0xff, 0x00, 0x00, 0x00, 0x01, 0x10, 0x00, 0x00, 0x00, 0x10, 0x00, 0x00, 0x00, 0x03, 0x00, 0x00, 0x00, 0x1c, 0x00, 0x00, 0x00, 0x48, 0xff, 0xff, 0xff, 0x0f, 0x00, 0x00, 0x00, 0x61, 0x72, 0x69, 0x74, 0x68, 0x2e, 0x63, 0x6f, 0x6e, 0x73, 0x74, 0x61, 0x6e, 0x74, 0x31, 0x00, 0x02, 0x00, 0x00, 0x00, 0x10, 0x00, 0x00, 0x00, 0x20, 0x00, 0x00, 0x00, 0x00, 0x00, 0x16, 0x00, 0x18, 0x00, 0x14, 0x00, 0x00, 0x00, 0x10, 0x00, 0x0c, 0x00, 0x08, 0x00, 0x00, 0x00, 0x00, 0x00, 0x00, 0x00, 0x07, 0x00, 0x16, 0x00, 0x00, 0x00, 0x00, 0x00, 0x00, 0x01, 0x10, 0x00, 0x00, 0x00, 0x10, 0x00, 0x00, 0x00, 0x02, 0x00, 0x00, 0x00, 0x1c, 0x00, 0x00, 0x00, 0x9c, 0xff, 0xff, 0xff, 0x0e, 0x00, 0x00, 0x00, 0x61, 0x72, 0x69, 0x74, 0x68, 0x2e, 0x63, 0x6f, 0x6e, 0x73, 0x74, 0x61, 0x6e, 0x74, 0x00, 0x00, 0x02, 0x00, 0x00, 0x00, 0x04, 0x00, 0x00, 0x00, 0x10, 0x00, 0x00, 0x00, 0x00, 0x00, 0x16, 0x00, 0x1c, 0x00, 0x18, 0x00, 0x00, 0x00, 0x14, 0x00, 0x10, 0x00, 0x0c, 0x00, 0x00, 0x00, 0x00, 0x00, 0x08, 0x00, 0x07, 0x00, 0x16, 0x00, 0x00, 0x00, 0x00, 0x00, 0x00, 0x01, 0x14, 0x00, 0x00, 0x00, 0x20, 0x00, 0x00, 0x00, 0x20, 0x00, 0x00, 0x00, 0x01, 0x00, 0x00, 0x00, 0x3c, 0x00, 0x00, 0x00, 0x02, 0x00, 0x00, 0x00, 0xff, 0xff, 0xff, 0xff, 0x05, 0x00, 0x00, 0x00, 0x04, 0x00, 0x04, 0x00, 0x04, 0x00, 0x00, 0x00, 0x1e, 0x00, 0x00, 0x00, 0x73, 0x65, 0x72, 0x76, 0x69, 0x6e, 0x67, 0x5f, 0x64, 0x65, 0x66, 0x61, 0x75, 0x6c, 0x74, 0x5f, 0x6b, 0x65, 0x72, 0x61, 0x73, 0x5f, 0x74, 0x65, 0x6e, 0x73, 0x6f, 0x72, 0x3a, 0x30, 0x00, 0x00, 0x02, 0x00, 0x00, 0x00, 0x01, 0x00, 0x00, 0x00, 0x05, 0x00, 0x00, 0x00, 0x02, 0x00, 0x00, 0x00, 0x20, 0x00, 0x00, 0x00, 0x04, 0x00, 0x00, 0x00, 0xf4, 0xff, 0xff, 0xff, 0x19, 0x00, 0x00, 0x00, 0x00, 0x00, 0x00, 0x19, 0x0c, 0x00, 0x0c, 0x00, 0x0b, 0x00, 0x00, 0x00, 0x00, 0x00, 0x04, 0x00, 0x0c, 0x00, 0x00, 0x00, 0x09, 0x00, 0x00, 0x00, 0x00, 0x00, 0x00, 0x09 };