#pragma once

#ifdef __has_attribute
#define HAVE_ATTRIBUTE(x) __has_attribute(x)
#else
#define HAVE_ATTRIBUTE(x) 0
#endif
#if HAVE_ATTRIBUTE(aligned) || (defined(__GNUC__) && !defined(__clang__))
#define DATA_ALIGN_ATTRIBUTE __attribute__((aligned(4)))
#else
#define DATA_ALIGN_ATTRIBUTE
#endif

// automatically configure network
#define TF_NUM_INPUTS 4
#define TF_NUM_OUTPUTS 3
#define TF_NUM_OPS 2
#define TF_OP_FULLYCONNECTED
#define TF_OP_SOFTMAX

// sample data
float x0[4] = {0.22222222222f, 0.62500000000f, 0.06779661017f, 0.04166666667f};
float x1[4] = {0.75000000000f, 0.50000000000f, 0.62711864407f, 0.54166666667f};
float x2[4] = {0.55555555556f, 0.54166666667f, 0.84745762712f, 1.00000000000f};

/** model size = 5060 bytes **/
const unsigned char irisModel[] DATA_ALIGN_ATTRIBUTE = {0x1c, 0x00, 0x00, 0x00, 0x54, 0x46, 0x4c, 0x33, 0x14, 0x00, 0x20, 0x00, 0x1c, 0x00, 0x18, 0x00, 0x14, 0x00, 0x10, 0x00, 0x0c, 0x00, 0x00, 0x00, 0x08, 0x00, 0x04, 0x00, 0x14, 0x00, 0x00, 0x00, 0x1c, 0x00, 0x00, 0x00, 0x98, 0x00, 0x00, 0x00, 0xf0, 0x00, 0x00, 0x00, 0x9c, 0x0d, 0x00, 0x00, 0xac, 0x0d, 0x00, 0x00, 0x60, 0x13, 0x00, 0x00, 0x03, 0x00, 0x00, 0x00, 0x01, 0x00, 0x00, 0x00, 0x10, 0x00, 0x00, 0x00, 0x00, 0x00, 0x0a, 0x00, 0x10, 0x00, 0x0c, 0x00, 0x08, 0x00, 0x04, 0x00, 0x0a, 0x00, 0x00, 0x00, 0x0c, 0x00, 0x00, 0x00, 0x1c, 0x00, 0x00, 0x00, 0x3c, 0x00, 0x00, 0x00, 0x0f, 0x00, 0x00, 0x00, 0x73, 0x65, 0x72, 0x76, 0x69, 0x6e, 0x67, 0x5f, 0x64, 0x65, 0x66, 0x61, 0x75, 0x6c, 0x74, 0x00, 0x01, 0x00, 0x00, 0x00, 0x04, 0x00, 0x00, 0x00, 0x90, 0xff, 0xff, 0xff, 0x0a, 0x00, 0x00, 0x00, 0x04, 0x00, 0x00, 0x00, 0x08, 0x00, 0x00, 0x00, 0x6f, 0x75, 0x74, 0x70, 0x75, 0x74, 0x5f, 0x30, 0x00, 0x00, 0x00, 0x00, 0x01, 0x00, 0x00, 0x00, 0x04, 0x00, 0x00, 0x00, 0x4a, 0xf2, 0xff, 0xff, 0x04, 0x00, 0x00, 0x00, 0x0c, 0x00, 0x00, 0x00, 0x6b, 0x65, 0x72, 0x61, 0x73, 0x5f, 0x74, 0x65, 0x6e, 0x73, 0x6f, 0x72, 0x00, 0x00, 0x00, 0x00, 0x02, 0x00, 0x00, 0x00, 0x34, 0x00, 0x00, 0x00, 0x04, 0x00, 0x00, 0x00, 0xdc, 0xff, 0xff, 0xff, 0x0d, 0x00, 0x00, 0x00, 0x04, 0x00, 0x00, 0x00, 0x13, 0x00, 0x00, 0x00, 0x43, 0x4f, 0x4e, 0x56, 0x45, 0x52, 0x53, 0x49, 0x4f, 0x4e, 0x5f, 0x4d, 0x45, 0x54, 0x41, 0x44, 0x41, 0x54, 0x41, 0x00, 0x08, 0x00, 0x0c, 0x00, 0x08, 0x00, 0x04, 0x00, 0x08, 0x00, 0x00, 0x00, 0x0c, 0x00, 0x00, 0x00, 0x04, 0x00, 0x00, 0x00, 0x13, 0x00, 0x00, 0x00, 0x6d, 0x69, 0x6e, 0x5f, 0x72, 0x75, 0x6e, 0x74, 0x69, 0x6d, 0x65, 0x5f, 0x76, 0x65, 0x72, 0x73, 0x69, 0x6f, 0x6e, 0x00, 0x0e, 0x00, 0x00, 0x00, 0xa8, 0x0c, 0x00, 0x00, 0xa0, 0x0c, 0x00, 0x00, 0xd0, 0x0b, 0x00, 0x00, 0xc0, 0x03, 0x00, 0x00, 0xa4, 0x03, 0x00, 0x00, 0x54, 0x03, 0x00, 0x00, 0xc4, 0x02, 0x00, 0x00, 0xb4, 0x00, 0x00, 0x00, 0xac, 0x00, 0x00, 0x00, 0xa4, 0x00, 0x00, 0x00, 0x9c, 0x00, 0x00, 0x00, 0x94, 0x00, 0x00, 0x00, 0x74, 0x00, 0x00, 0x00, 0x04, 0x00, 0x00, 0x00, 0xfe, 0xf2, 0xff, 0xff, 0x04, 0x00, 0x00, 0x00, 0x60, 0x00, 0x00, 0x00, 0x10, 0x00, 0x00, 0x00, 0x00, 0x00, 0x00, 0x00, 0x08, 0x00, 0x0e, 0x00, 0x08, 0x00, 0x04, 0x00, 0x08, 0x00, 0x00, 0x00, 0x10, 0x00, 0x00, 0x00, 0x24, 0x00, 0x00, 0x00, 0x00, 0x00, 0x06, 0x00, 0x08, 0x00, 0x04, 0x00, 0x06, 0x00, 0x00, 0x00, 0x04, 0x00, 0x00, 0x00, 0x00, 0x00, 0x00, 0x00, 0x0c, 0x00, 0x18, 0x00, 0x14, 0x00, 0x10, 0x00, 0x0c, 0x00, 0x04, 0x00, 0x0c, 0x00, 0x00, 0x00, 0x0f, 0x07, 0x64, 0xf7, 0x46, 0x1f, 0xd9, 0xc2, 0x02, 0x00, 0x00, 0x00, 0x02, 0x00, 0x00, 0x00, 0x04, 0x00, 0x00, 0x00, 0x06, 0x00, 0x00, 0x00, 0x32, 0x2e, 0x31, 0x39, 0x2e, 0x30, 0x00, 0x00, 0x6a, 0xf3, 0xff, 0xff, 0x04, 0x00, 0x00, 0x00, 0x10, 0x00, 0x00, 0x00, 0x31, 0x2e, 0x35, 0x2e, 0x30, 0x00, 0x00, 0x00, 0x00, 0x00, 0x00, 0x00, 0x00, 0x00, 0x00, 0x00, 0x80, 0xee, 0xff, 0xff, 0x84, 0xee, 0xff, 0xff, 0x88, 0xee, 0xff, 0xff, 0x8c, 0xee, 0xff, 0xff, 0x96, 0xf3, 0xff, 0xff, 0x04, 0x00, 0x00, 0x00, 0x00, 0x02, 0x00, 0x00, 0xb7, 0x6c, 0xef, 0x3d, 0xa5, 0x89, 0x99, 0x3d, 0x69, 0x47, 0xb4, 0x3e, 0xcf, 0xe2, 0x96, 0x3e, 0x17, 0x8f, 0xa3, 0x3e, 0x4b, 0xcf, 0x93, 0xbe, 0x81, 0x98, 0xd7, 0x3d, 0xf0, 0xa0, 0x4f, 0xbe, 0x37, 0x57, 0x74, 0x3e, 0x28, 0x24, 0x82, 0x3e, 0x52, 0xcc, 0x67, 0x3e, 0x69, 0x58, 0x30, 0x3e, 0x77, 0x39, 0xa1, 0x3d, 0x07, 0x9a, 0x17, 0x3e, 0x0b, 0xce, 0xb1, 0x3e, 0xb8, 0xfd, 0x6d, 0x3e, 0xdd, 0x70, 0xc7, 0x3e, 0x82, 0xa9, 0x9c, 0xbe, 0x16, 0x70, 0x8a, 0x3c, 0x50, 0xd9, 0x9b, 0x3e, 0x62, 0x53, 0x91, 0xbe, 0x64, 0x7a, 0x0c, 0x3f, 0x33, 0xc9, 0xa9, 0xbe, 0x7b, 0x8e, 0x5b, 0x3e, 0xe4, 0x84, 0x0d, 0x3e, 0x66, 0x1a, 0x2e, 0xbc, 0x71, 0xa4, 0x87, 0xbe, 0x8b, 0x1c, 0xd5, 0xbe, 0xd1, 0xc3, 0x4b, 0x3e, 0x4b, 0xf3, 0xc5, 0x3e, 0x2d, 0x1b, 0x29, 0xbd, 0x04, 0xca, 0xe9, 0xbe, 0x37, 0xa2, 0x54, 0x3d, 0xfe, 0x51, 0xcf, 0xbd, 0xb7, 0x82, 0x33, 0x3e, 0x32, 0x91, 0xaf, 0x3e, 0xb8, 0xa7, 0x4b, 0x3e, 0xf3, 0x97, 0x04, 0xbd, 0xb4, 0x06, 0x93, 0x3e, 0xc5, 0xba, 0xf2, 0x3e, 0xbd, 0xb9, 0x98, 0xbe, 0xd7, 0xe6, 0x0e, 0x3f, 0x46, 0x59, 0x20, 0xbd, 0xaf, 0xb0, 0xb6, 0x3d, 0x10, 0xc5, 0x3f, 0x3e, 0x69, 0xfb, 0x14, 0xbe, 0x6f, 0xe8, 0x97, 0x3d, 0x12, 0xe5, 0xa5, 0x3e, 0xeb, 0x5c, 0x77, 0xbd, 0x69, 0x74, 0x25, 0x3e, 0xa3, 0xaf, 0x81, 0x3e, 0xa3, 0xca, 0xd4, 0x3e, 0xa3, 0x40, 0x16, 0x3e, 0x81, 0x85, 0x80, 0xbe, 0x01, 0x82, 0xf6, 0xbd, 0x66, 0xfb, 0xa2, 0x3d, 0x22, 0xbf, 0x70, 0x3e, 0xcb, 0x61, 0xad, 0x3e, 0x46, 0x00, 0x99, 0x3e, 0x27, 0x6b, 0x3f, 0xbe, 0xaf, 0x8c, 0xf2, 0x3d, 0x57, 0x34, 0x16, 0xbd, 0x50, 0xe1, 0x3d, 0x3e, 0x0d, 0xe0, 0x8c, 0x3e, 0x3e, 0x70, 0xc9, 0x3d, 0xe9, 0x9b, 0xbf, 0x3e, 0xb6, 0x4e, 0xec, 0x3e, 0x68, 0xce, 0x8d, 0xbe, 0x19, 0xe5, 0x21, 0xbe, 0xbd, 0xc5, 0x06, 0xbe, 0xfb, 0x2d, 0x49, 0x3e, 0xe6, 0xd1, 0xd7, 0x3e, 0x9e, 0xe5, 0x6e, 0xbe, 0x2a, 0x8d, 0x77, 0x3e, 0x06, 0x30, 0x02, 0xbe, 0xe8, 0x58, 0xa6, 0x3e, 0x8d, 0x15, 0x16, 0xbe, 0x20, 0x1f, 0x01, 0x3f, 0x70, 0x2e, 0x0b, 0x3e, 0x2d, 0x2e, 0xc6, 0xbe, 0x7f, 0x65, 0x8d, 0xbe, 0x0b, 0xa8, 0xd7, 0x3e, 0x03, 0xac, 0x65, 0x3c, 0x10, 0x17, 0xd0, 0x3b, 0xda, 0x59, 0xcd, 0xbd, 0xae, 0x6b, 0xa4, 0xbd, 0xc6, 0x91, 0x63, 0x3e, 0x57, 0xdf, 0xce, 0x3e, 0x9e, 0x16, 0x76, 0xbe, 0x08, 0x7f, 0x61, 0x3d, 0x9a, 0x66, 0x6b, 0xbc, 0x8c, 0xc2, 0xc4, 0xbe, 0xe8, 0x1b, 0xb9, 0xbe, 0x10, 0x9e, 0x95, 0xbe, 0x70, 0x4f, 0x3e, 0xbd, 0x18, 0x5e, 0xc7, 0x3d, 0xe0, 0xfc, 0x6b, 0xbe, 0xbb, 0xc1, 0x0a, 0x3f, 0xef, 0x77, 0xb3, 0x3d, 0xaa, 0x79, 0xda, 0x3d, 0x75, 0x87, 0x11, 0x3f, 0xc4, 0x65, 0xac, 0xbd, 0xe5, 0x70, 0xc9, 0x3d, 0x76, 0xa8, 0xc5, 0x3e, 0x9e, 0x2f, 0xbf, 0x3e, 0x8b, 0x39, 0x6a, 0xbe, 0x2b, 0x86, 0x45, 0xbe, 0xd2, 0x19, 0x06, 0x3f, 0x2b, 0x6a, 0x5c, 0xbe, 0xd8, 0x72, 0x00, 0xbe, 0x18, 0xa7, 0xa5, 0xbd, 0xe7, 0xa3, 0x8c, 0xbe, 0x24, 0x63, 0x9d, 0x3d, 0xe0, 0xaa, 0xb7, 0xbe, 0x34, 0xe6, 0xfe, 0xbd, 0xde, 0x4b, 0x73, 0xbe, 0xeb, 0x5f, 0xa8, 0x3e, 0x6f, 0x01, 0xb7, 0x3b, 0x00, 0xe8, 0xda, 0xbd, 0x8c, 0xf1, 0x19, 0x3e, 0x89, 0xe2, 0xfc, 0xbd, 0x06, 0x23, 0x3d, 0x3d, 0xe9, 0x22, 0x20, 0x3e, 0x2a, 0x90, 0x35, 0xbe, 0xd2, 0x79, 0x17, 0x3e, 0xca, 0xce, 0x1e, 0xbe, 0x88, 0x30, 0x02, 0x3f, 0x4a, 0xdc, 0x06, 0x3f, 0xa2, 0xf5, 0xff, 0xff, 0x04, 0x00, 0x00, 0x00, 0x80, 0x00, 0x00, 0x00, 0xe5, 0x6a, 0xeb, 0xbd, 0x40, 0xf0, 0x3c, 0xbd, 0xf3, 0xf9, 0xf3, 0x3d, 0xd9, 0x8b, 0xd8, 0xbd, 0x04, 0x24, 0x3d, 0x3d, 0x90, 0xc2, 0x76, 0x3e, 0x93, 0x8f, 0x8e, 0xbc, 0x00, 0xaa, 0x25, 0x3e, 0x0d, 0x41, 0xf3, 0x3b, 0x84, 0x4a, 0x82, 0xbd, 0x73, 0xe9, 0x23, 0x3e, 0x2c, 0xf6, 0xa5, 0x3b, 0x3a, 0x9f, 0xd2, 0x3b, 0x9e, 0xb1, 0x04, 0xbd, 0xe9, 0x68, 0x22, 0x3d, 0x57, 0x8f, 0x17, 0xbd, 0x3f, 0x46, 0xce, 0x3d, 0x2e, 0x66, 0x92, 0xbc, 0xe5, 0xc7, 0xb1, 0x3c, 0x47, 0x26, 0x62, 0x3e, 0xe8, 0x54, 0x17, 0x3e, 0x1e, 0x49, 0x84, 0x3b, 0x8e, 0xe5, 0xd8, 0xbc, 0x00, 0x00, 0x00, 0x00, 0xe5, 0x8a, 0xf8, 0x3d, 0xca, 0x2e, 0x92, 0x3d, 0x62, 0xf7, 0x1b, 0x3d, 0x00, 0x00, 0x00, 0x00, 0x00, 0x00, 0x00, 0x00, 0x97, 0x75, 0xaf, 0xbd, 0x1b, 0xad, 0xf8, 0xbc, 0x02, 0x67, 0x4a, 0x3d, 0x2e, 0xf6, 0xff, 0xff, 0x04, 0x00, 0x00, 0x00, 0x40, 0x00, 0x00, 0x00, 0x6b, 0xaa, 0xcb, 0x3d, 0xc6, 0xa9, 0x9f, 0xbd, 0xb2, 0xa9, 0x47, 0x3c, 0x8d, 0xb3, 0xc1, 0xbd, 0x91, 0x81, 0xae, 0xba, 0xbd, 0xd6, 0x3b, 0x3e, 0x24, 0x3e, 0x41, 0xbc, 0x0f, 0x48, 0x29, 0x3e, 0x52, 0xc4, 0xd1, 0x3d, 0x6f, 0x99, 0x0b, 0x3d, 0x6d, 0x4e, 0x13, 0x3d, 0x3f, 0xd9, 0xd7, 0x3d, 0x09, 0x73, 0x07, 0x3e, 0xb8, 0x73, 0x29, 0x3d, 0x27, 0x92, 0x19, 0x3e, 0xf5, 0x6d, 0x18, 0xbc, 0x7a, 0xf6, 0xff, 0xff, 0x04, 0x00, 0x00, 0x00, 0x0c, 0x00, 0x00, 0x00, 0xa6, 0x80, 0x62, 0x3d, 0xee, 0xc9, 0x44, 0x3d, 0x79, 0x26, 0xd8, 0xbd, 0x92, 0xf6, 0xff, 0xff, 0x04, 0x00, 0x00, 0x00, 0x00, 0x08, 0x00, 0x00, 0x57, 0x98, 0x9b, 0xbe, 0x04, 0x57, 0xcc, 0xbe, 0x8b, 0x8f, 0x8c, 0x3d, 0xf4, 0x86, 0x0a, 0x3d, 0xd0, 0x20, 0xa4, 0xbe, 0x0d, 0x01, 0xd4, 0x3e, 0x48, 0xb2, 0x55, 0x3e, 0xa5, 0x3b, 0xe2, 0x3e, 0xf6, 0x9c, 0x9f, 0xbc, 0xf3, 0x2f, 0x65, 0x3e, 0x1e, 0x3b, 0x92, 0x3e, 0x6e, 0xd9, 0xf2, 0xbd, 0xaf, 0x95, 0x8d, 0x3e, 0xf3, 0xca, 0x47, 0x3c, 0xe3, 0x3c, 0x9b, 0x3e, 0xae, 0x91, 0x93, 0xbe, 0x28, 0x5a, 0xa2, 0x3d, 0x9f, 0x1a, 0xb4, 0x3d, 0x95, 0x0f, 0x9f, 0xbe, 0xb4, 0x94, 0x05, 0x3f, 0xd5, 0x49, 0x16, 0xbe, 0x23, 0xa5, 0xd4, 0xbd, 0x43, 0x10, 0x25, 0x3e, 0x50, 0x1d, 0x96, 0x3c, 0x96, 0x01, 0x44, 0x3e, 0x4c, 0xdf, 0x15, 0xbc, 0xa6, 0x2e, 0x07, 0xbd, 0x05, 0xe6, 0x84, 0x3e, 0xfc, 0x36, 0xda, 0x3d, 0xc5, 0xbf, 0x6d, 0x3d, 0x82, 0xa8, 0x84, 0xbd, 0xdd, 0x96, 0x53, 0xbe, 0xd1, 0xd0, 0x0f, 0xbd, 0x17, 0x6f, 0xf0, 0x3d, 0x12, 0x64, 0xfa, 0x3d, 0x12, 0x05, 0x1a, 0x3e, 0x67, 0xab, 0xa9, 0xbd, 0x6b, 0x71, 0x21, 0xbe, 0x4f, 0x71, 0x92, 0xbd, 0x03, 0x37, 0x8d, 0xbe, 0x24, 0x52, 0x91, 0x3e, 0x8f, 0x4f, 0x9c, 0x3e, 0xc9, 0x08, 0x78, 0x3c, 0x48, 0x04, 0x27, 0x3e, 0x9a, 0x5b, 0xda, 0x3d, 0xa2, 0x68, 0x88, 0xbe, 0x85, 0x60, 0x40, 0x3e, 0x6f, 0xfd, 0x34, 0x3e, 0x24, 0xb7, 0x90, 0x3e, 0x89, 0x49, 0xa9, 0x3e, 0x6b, 0xb0, 0x5b, 0x3e, 0x39, 0x9c, 0x97, 0xbb, 0xcb, 0xf7, 0x92, 0xbe, 0xe1, 0x5b, 0xd0, 0x3e, 0xaa, 0x3d, 0xad, 0x3d, 0x8d, 0x48, 0x3c, 0xbe, 0x24, 0x32, 0x84, 0xbe, 0x25, 0xa6, 0x8c, 0x3e, 0xf4, 0xfd, 0xa8, 0x3e, 0x98, 0x80, 0x29, 0x3d, 0xc8, 0xf3, 0x92, 0xbe, 0xa0, 0x9d, 0xe4, 0x3e, 0x03, 0xf3, 0xa6, 0x3e, 0x57, 0xf8, 0x24, 0x3e, 0x0e, 0x71, 0x69, 0x3d, 0xc4, 0x90, 0xa3, 0x3e, 0xe4, 0x12, 0x1f, 0x3e, 0x55, 0x7e, 0x04, 0x3e, 0x98, 0xe8, 0xca, 0x3d, 0x5d, 0x2a, 0xda, 0xbd, 0x6d, 0xc0, 0x05, 0x3d, 0x16, 0x35, 0xaa, 0xbd, 0xd0, 0x2a, 0x0b, 0xbf, 0x79, 0xd4, 0xfc, 0xbd, 0x74, 0x4f, 0xde, 0x3e, 0x0f, 0x0c, 0xe3, 0x3d, 0x51, 0x34, 0x30, 0x3e, 0x92, 0x35, 0xf7, 0x3a, 0xf8, 0xb2, 0x24, 0xbd, 0x17, 0x52, 0xc0, 0x3c, 0xbc, 0x64, 0xd5, 0xba, 0x32, 0xd4, 0x79, 0xbe, 0x40, 0x91, 0x3d, 0x3e, 0xf3, 0x2b, 0xce, 0x3e, 0x55, 0x7a, 0xc9, 0x3e, 0x53, 0xf0, 0x44, 0x3d, 0x29, 0x75, 0x2d, 0xbe, 0x60, 0x77, 0x22, 0xbc, 0x92, 0x3d, 0x75, 0xbe, 0x77, 0xcd, 0x08, 0x3d, 0xda, 0x73, 0x28, 0xbe, 0x91, 0x5b, 0x9a, 0xbe, 0xd0, 0x59, 0x79, 0xbd, 0x40, 0x17, 0x58, 0xbe, 0xd4, 0x82, 0xe6, 0x3d, 0xf5, 0xdd, 0x9b, 0xbe, 0xb4, 0x58, 0x1d, 0x3e, 0x8f, 0xe1, 0x63, 0x3d, 0x2c, 0xfe, 0x2c, 0x3e, 0x73, 0x9c, 0x14, 0x3e, 0x4c, 0x84, 0x99, 0x3e, 0x22, 0x4c, 0xfc, 0xbe, 0xeb, 0xb0, 0x2a, 0xbd, 0x9a, 0x58, 0x53, 0xbe, 0x5a, 0xb7, 0xb0, 0x3e, 0x76, 0x53, 0x79, 0xbe, 0x33, 0x8e, 0x92, 0x3d, 0x29, 0x9f, 0x4e, 0xbe, 0x2b, 0x6e, 0x52, 0x3e, 0xc7, 0x70, 0x00, 0xbe, 0x36, 0x26, 0x8d, 0x3e, 0x64, 0xb7, 0x9a, 0x3e, 0xf1, 0xf3, 0xf3, 0x3d, 0xb0, 0x28, 0x97, 0x3e, 0xba, 0x61, 0xc7, 0x3c, 0x11, 0xaa, 0xb7, 0xbd, 0x9b, 0x63, 0xd1, 0xbe, 0x49, 0xa5, 0xa1, 0x3e, 0x50, 0xd0, 0x8a, 0xbe, 0x3e, 0x76, 0xa8, 0xbe, 0xe9, 0x06, 0x94, 0x3e, 0xe0, 0xa4, 0x6b, 0x3e, 0xd4, 0x00, 0xc1, 0xbd, 0x00, 0x8c, 0x04, 0x3e, 0xf0, 0x5a, 0xcd, 0x3c, 0x60, 0xa9, 0x42, 0x3d, 0x75, 0x85, 0x13, 0x3e, 0xff, 0xa1, 0xdc, 0x3c, 0x68, 0xe6, 0x3f, 0x3e, 0x3a, 0x8e, 0x5c, 0xbe, 0xe7, 0x33, 0xd8, 0x3e, 0x1e, 0x0a, 0xec, 0x3e, 0x36, 0x60, 0x07, 0x3f, 0x3b, 0x06, 0xd0, 0x3d, 0x19, 0x40, 0x80, 0x3e, 0xfd, 0xe8, 0xe6, 0xbe, 0x6b, 0xf6, 0x14, 0x3e, 0x34, 0xa0, 0xea, 0x3e, 0x4a, 0x61, 0x81, 0xbe, 0xbe, 0xb3, 0xe6, 0x3e, 0xec, 0x6a, 0xbc, 0x3e, 0x92, 0x79, 0x8c, 0xbe, 0xe5, 0x36, 0x29, 0xbe, 0x72, 0xe3, 0xf1, 0x3e, 0x6a, 0x3a, 0x87, 0x3e, 0xca, 0x51, 0xc6, 0x3e, 0xb9, 0x2e, 0xf7, 0xbd, 0xb5, 0x76, 0x09, 0x3d, 0xc3, 0x0e, 0xb3, 0x3c, 0x3c, 0x77, 0xd9, 0x3d, 0xb1, 0x08, 0x9d, 0x3e, 0xb8, 0xa8, 0xa2, 0xbd, 0xf4, 0x23, 0x4c, 0xbe, 0x87, 0xcf, 0x5f, 0x3e, 0x65, 0x26, 0x72, 0x3e, 0x6d, 0xf9, 0xa1, 0xbe, 0x38, 0xf5, 0xfe, 0x3d, 0xde, 0xcc, 0xca, 0xbd, 0xed, 0x04, 0x48, 0x3e, 0x3f, 0xb8, 0x01, 0x3f, 0xf2, 0x0a, 0xb4, 0x3d, 0x88, 0x0d, 0x7b, 0x3e, 0xf7, 0x06, 0xb2, 0x3e, 0xfe, 0x5d, 0xa7, 0xbd, 0xa6, 0xd9, 0xdd, 0xbe, 0x46, 0xa1, 0x02, 0x3f, 0x03, 0x77, 0xb9, 0x3e, 0xa7, 0x8d, 0xb5, 0xbd, 0x6b, 0x48, 0xb1, 0xbd, 0x96, 0x01, 0x25, 0xbe, 0x16, 0x6d, 0x06, 0x3f, 0x27, 0xb8, 0x5a, 0xbe, 0x41, 0x9e, 0x10, 0xbe, 0x6e, 0xc3, 0xf3, 0xbd, 0x28, 0xce, 0x18, 0x3e, 0xd5, 0x56, 0xbf, 0xbe, 0x20, 0xc2, 0x94, 0xbd, 0x86, 0xc9, 0x03, 0xbc, 0xf6, 0xb9, 0xbe, 0xbd, 0xf0, 0x5e, 0x81, 0x3e, 0x47, 0xe6, 0xf5, 0x3e, 0xfb, 0x8b, 0x28, 0xbe, 0xd9, 0x0d, 0xbd, 0x3e, 0xe6, 0x42, 0x7e, 0x3e, 0xf4, 0x66, 0x01, 0x3e, 0x67, 0xfb, 0x30, 0x3e, 0xf5, 0x55, 0xa8, 0x3d, 0x29, 0xb7, 0xa7, 0xbe, 0x7a, 0xcb, 0xff, 0xbd, 0x4f, 0x50, 0xd4, 0xbd, 0x7f, 0xa2, 0x87, 0x3d, 0x3d, 0x2e, 0x85, 0xbe, 0x07, 0x02, 0x08, 0x3e, 0x7a, 0xd4, 0xcf, 0x3d, 0xc3, 0x69, 0x6f, 0xbe, 0xbd, 0xdb, 0x44, 0x3e, 0x07, 0xbb, 0x16, 0xbd, 0x20, 0x82, 0x90, 0xbe, 0x38, 0xc6, 0x67, 0x3d, 0x10, 0x0c, 0xaf, 0xbd, 0xf0, 0xed, 0x85, 0x3d, 0x10, 0x27, 0x35, 0x3e, 0x21, 0x23, 0x68, 0x3e, 0xa4, 0x8b, 0x59, 0x3d, 0x84, 0x9b, 0x79, 0x3e, 0xb4, 0x95, 0x90, 0xbe, 0xe4, 0x42, 0x35, 0xbe, 0x17, 0x7e, 0x5d, 0x3c, 0xeb, 0x74, 0xa7, 0xbe, 0x05, 0xf3, 0xac, 0x3d, 0x88, 0x10, 0xad, 0x3e, 0x72, 0x64, 0xb4, 0x3d, 0xa2, 0x43, 0x94, 0xbe, 0x2c, 0x8b, 0x2a, 0x3e, 0xed, 0x4b, 0x28, 0xbe, 0xd4, 0x5e, 0x4c, 0xbe, 0xf1, 0x74, 0x04, 0x3d, 0xf1, 0xbd, 0x9c, 0xbe, 0x50, 0x6c, 0x37, 0x3e, 0x7c, 0x51, 0x8b, 0xbe, 0x3b, 0xf0, 0x08, 0xbe, 0x57, 0x59, 0x80, 0xbd, 0xb8, 0x53, 0xd3, 0xbd, 0xa1, 0xae, 0x95, 0xbe, 0x86, 0x5f, 0xad, 0xbe, 0xbc, 0x2f, 0x11, 0x3e, 0x93, 0x72, 0x90, 0x3d, 0x5b, 0xcb, 0x02, 0xbe, 0x9c, 0x4e, 0xb4, 0xbe, 0xca, 0x35, 0x06, 0x3f, 0xca, 0x7e, 0x9b, 0xbe, 0xb6, 0x96, 0x0a, 0x3e, 0xb2, 0xda, 0xd6, 0xbe, 0x85, 0xd6, 0x12, 0xbe, 0x2a, 0xc4, 0xc1, 0x3e, 0x0e, 0xd6, 0x99, 0x3d, 0xe2, 0x2e, 0xa1, 0x3d, 0x95, 0x77, 0x9e, 0x3d, 0x72, 0x05, 0x51, 0xbe, 0x76, 0x29, 0xde, 0xbe, 0x99, 0x0b, 0x97, 0x3e, 0xf3, 0x39, 0x75, 0xbd, 0x99, 0x76, 0x27, 0x3e, 0x2b, 0xb4, 0xcb, 0x3e, 0x7d, 0x3e, 0x3e, 0x3e, 0x60, 0x45, 0x51, 0xbe, 0x80, 0x2e, 0x16, 0x3d, 0x1d, 0xf8, 0x81, 0x3e, 0x54, 0x0b, 0xc2, 0x3e, 0xa8, 0xe9, 0xc9, 0x3c, 0x55, 0xe5, 0x23, 0xbd, 0xbe, 0x83, 0x78, 0x3e, 0x8d, 0xcb, 0x47, 0xbe, 0xbf, 0x00, 0xaf, 0x3d, 0xce, 0xcf, 0x66, 0xbe, 0x20, 0x9a, 0x4c, 0x3e, 0xcd, 0xe4, 0x98, 0xbd, 0xe6, 0x5d, 0x55, 0xbe, 0xc0, 0x6b, 0x3f, 0x3e, 0x56, 0xb4, 0x9e, 0x3e, 0xf3, 0x7a, 0x02, 0x3f, 0x15, 0x8d, 0x32, 0xbe, 0xca, 0x07, 0x6e, 0xbe, 0x43, 0x6d, 0x46, 0x3e, 0xf0, 0x90, 0xa7, 0xbd, 0x70, 0x91, 0x02, 0xbe, 0x75, 0x70, 0x7e, 0xbe, 0x98, 0xa6, 0xb8, 0x3e, 0x6d, 0x1d, 0x7f, 0x3e, 0x35, 0x50, 0xb3, 0x3e, 0x17, 0x14, 0x5c, 0xbd, 0x3c, 0x43, 0xf1, 0x3e, 0x43, 0xa9, 0x4c, 0x3d, 0x77, 0xa8, 0x09, 0x3f, 0x48, 0x47, 0xa1, 0x3e, 0xd2, 0x40, 0x68, 0xbe, 0x8d, 0x39, 0x1f, 0xbe, 0xa2, 0x6e, 0xae, 0xbd, 0x9a, 0x5d, 0x78, 0xbe, 0x59, 0x0a, 0xa3, 0x3e, 0x52, 0xc8, 0x06, 0xbd, 0xb6, 0x62, 0x49, 0x3e, 0xcd, 0xf8, 0x4a, 0x3e, 0x49, 0x45, 0x59, 0xbe, 0x60, 0xf4, 0xf9, 0xbc, 0xf6, 0x4b, 0xc8, 0x3e, 0x73, 0xa4, 0x6b, 0xbe, 0x9b, 0xb5, 0xea, 0x3e, 0x26, 0x8d, 0x14, 0xbe, 0x57, 0x1d, 0x1d, 0xbd, 0x1d, 0x45, 0x4a, 0xbd, 0xa9, 0x42, 0x2b, 0xbe, 0x6f, 0xd9, 0x92, 0x3d, 0xd1, 0xae, 0xf5, 0x3e, 0x57, 0xff, 0x3b, 0x3e, 0xce, 0x4e, 0xa9, 0x3b, 0xf9, 0x35, 0x53, 0xbe, 0xc9, 0x6e, 0x67, 0xbe, 0x5e, 0x35, 0xee, 0x3d, 0x4e, 0x6d, 0xa9, 0xbe, 0xd6, 0x59, 0x74, 0x3e, 0xbf, 0xe2, 0x32, 0x3e, 0x93, 0xa7, 0x9d, 0x3e, 0x63, 0xc8, 0x50, 0xbe, 0x37, 0x8b, 0x13, 0x3e, 0xe6, 0x06, 0xc2, 0x3d, 0x77, 0x48, 0x3b, 0xbb, 0xcd, 0xf8, 0x02, 0xbe, 0xe5, 0x07, 0x8f, 0x3e, 0x0a, 0xdf, 0x26, 0xbe, 0x68, 0xe5, 0x35, 0xbe, 0x1c, 0xf1, 0xc7, 0x3d, 0xd7, 0x99, 0xbf, 0x3e, 0xd4, 0xf1, 0x4f, 0xbd, 0x4d, 0x04, 0x73, 0xbe, 0xce, 0x83, 0x53, 0x3e, 0xe5, 0x67, 0x98, 0x3e, 0x04, 0x87, 0xc1, 0x3d, 0x33, 0xd3, 0xc0, 0x3d, 0x9e, 0xa1, 0x48, 0xbe, 0x4f, 0xcd, 0xcb, 0x3d, 0x8a, 0xa4, 0x90, 0xbe, 0xe2, 0x3a, 0xfa, 0x3d, 0x3d, 0xad, 0x4a, 0x3e, 0xc0, 0xb0, 0x98, 0xbe, 0xf7, 0x17, 0x0b, 0x3e, 0x36, 0x2d, 0x05, 0xbe, 0x55, 0x4b, 0x9e, 0x3e, 0x12, 0x17, 0x68, 0xbe, 0x1d, 0x86, 0x14, 0xbb, 0x40, 0x8e, 0x25, 0xbe, 0x0e, 0x0e, 0x0d, 0xbe, 0x4e, 0x7a, 0xc5, 0xbe, 0x2a, 0xfd, 0xf0, 0xbd, 0x9d, 0x55, 0x93, 0x3e, 0x1f, 0x78, 0x58, 0xbd, 0x01, 0xcb, 0x62, 0xbe, 0x81, 0x93, 0x0c, 0x3e, 0xa3, 0xe8, 0x97, 0x3e, 0x23, 0x03, 0x06, 0x3f, 0x8e, 0x03, 0xdb, 0x3e, 0x48, 0xaf, 0x8a, 0xbe, 0x89, 0x42, 0x9d, 0xbe, 0x12, 0x75, 0x7b, 0x3e, 0xdd, 0x41, 0x92, 0x3e, 0xe0, 0xaf, 0xab, 0xbe, 0x7d, 0x8f, 0xc3, 0xbe, 0x70, 0xba, 0x8b, 0xbc, 0x3e, 0x08, 0x63, 0xbe, 0x6e, 0xce, 0xae, 0xbd, 0xc2, 0x28, 0x90, 0x3d, 0x26, 0xd3, 0x3a, 0x3e, 0xd0, 0x17, 0x7c, 0x3e, 0xa3, 0x64, 0x0f, 0x3e, 0x69, 0x0b, 0xdc, 0x3d, 0xa7, 0x89, 0xac, 0xbe, 0x9b, 0x3b, 0x8a, 0xbd, 0x8b, 0x3b, 0x22, 0x3e, 0xb5, 0x53, 0xa7, 0xbe, 0xee, 0x95, 0xfe, 0xbd, 0xf7, 0x0f, 0x86, 0x3e, 0x75, 0xff, 0x6b, 0xbe, 0x87, 0xc9, 0xee, 0xbd, 0x85, 0x2e, 0xc4, 0xbe, 0x9d, 0x95, 0x07, 0xbe, 0x63, 0xdc, 0x33, 0xbe, 0xd5, 0x7d, 0x34, 0xbd, 0x18, 0x48, 0x2a, 0x3e, 0x1d, 0x65, 0x80, 0x3e, 0x3b, 0xca, 0xab, 0xbe, 0x70, 0x27, 0xd1, 0x3d, 0xcf, 0x02, 0xf0, 0x3e, 0x4e, 0xe7, 0xb7, 0x3b, 0x8b, 0xa9, 0xb3, 0x3c, 0xfa, 0x16, 0xbe, 0x3e, 0xb4, 0xe1, 0x45, 0xbe, 0x3b, 0x2f, 0x58, 0x3e, 0xa7, 0xd9, 0x41, 0x3e, 0x0e, 0x21, 0x52, 0xbc, 0xb8, 0xab, 0x02, 0x3d, 0x3f, 0xf0, 0x12, 0xbe, 0x77, 0xdc, 0x9f, 0xbe, 0xaa, 0x4d, 0xe0, 0xba, 0x17, 0xf7, 0x07, 0xbd, 0xe7, 0x60, 0xf5, 0x3d, 0xdf, 0x37, 0x75, 0x3d, 0x51, 0xc4, 0x98, 0xbd, 0x5c, 0xfe, 0x20, 0x3d, 0x98, 0x92, 0x1f, 0xbe, 0x7a, 0xf2, 0xee, 0x3e, 0x0f, 0x1a, 0x18, 0xbd, 0xe6, 0xdf, 0x8c, 0x3d, 0x80, 0xef, 0x77, 0xbe, 0x75, 0x72, 0x38, 0xbe, 0x80, 0xa2, 0x02, 0x3f, 0x29, 0xf2, 0x37, 0xbe, 0x59, 0xff, 0x3a, 0x3e, 0xc5, 0x16, 0x19, 0x3d, 0x68, 0x79, 0x51, 0x3e, 0xd8, 0x1a, 0xad, 0xbe, 0x90, 0x2e, 0xb4, 0x3e, 0x93, 0xd1, 0x8c, 0xbe, 0x8c, 0xfc, 0xda, 0x3d, 0xca, 0x78, 0x02, 0x3f, 0x38, 0x2f, 0x9c, 0x3e, 0x61, 0xa4, 0x02, 0xbf, 0xd0, 0x93, 0x01, 0x3e, 0x47, 0x1d, 0x8d, 0x3e, 0x89, 0x42, 0x43, 0x3e, 0xd7, 0x6c, 0xa6, 0x3d, 0xf5, 0x54, 0x86, 0xbe, 0x58, 0x40, 0xdc, 0x3d, 0x70, 0x7c, 0xfc, 0xbc, 0xd2, 0x4f, 0x8d, 0xbe, 0x12, 0x29, 0xac, 0x3e, 0xd8, 0x47, 0x83, 0xbd, 0x70, 0xfe, 0x43, 0x3c, 0x13, 0x20, 0x04, 0xbe, 0xb7, 0xf4, 0xcc, 0xbc, 0x39, 0x3e, 0x74, 0x3e, 0x2e, 0xf0, 0x3b, 0x3e, 0xa3, 0xe1, 0xa8, 0x3d, 0x51, 0x24, 0xb8, 0xbe, 0x2e, 0x4f, 0x3c, 0xbe, 0x63, 0x93, 0x2e, 0xbd, 0x35, 0xbc, 0x22, 0xbe, 0x21, 0x1a, 0x22, 0xbe, 0xfb, 0x6b, 0x2d, 0x3e, 0x41, 0xde, 0x95, 0x3e, 0x6f, 0x5b, 0x87, 0xbe, 0xa4, 0xac, 0x6b, 0x3e, 0x95, 0x4b, 0xf2, 0x3b, 0xff, 0x56, 0x8f, 0x3e, 0xc0, 0xc7, 0xee, 0xbd, 0xe2, 0x70, 0xe1, 0x3d, 0x75, 0x52, 0xf3, 0x3d, 0xc5, 0xc5, 0x2a, 0x3e, 0x7c, 0x98, 0x94, 0x3e, 0xd6, 0xf2, 0x9f, 0x3e, 0x99, 0x02, 0xa2, 0x3e, 0x5f, 0xcd, 0x8a, 0xbe, 0xaf, 0x40, 0x55, 0xbe, 0x11, 0x55, 0x07, 0xbd, 0xc7, 0xd0, 0xa1, 0x3e, 0x00, 0x71, 0x7e, 0xbd, 0x66, 0x2b, 0x77, 0xbe, 0x00, 0xfa, 0x84, 0xbe, 0x03, 0xa4, 0x64, 0x3e, 0xd1, 0xef, 0x96, 0x3d, 0xdf, 0xa3, 0x5a, 0x3d, 0x0c, 0x99, 0xb1, 0xbd, 0xef, 0x0a, 0xa9, 0xbe, 0x88, 0xd6, 0x92, 0xbe, 0xaa, 0x96, 0x94, 0x3e, 0xd9, 0x4e, 0x9a, 0x3e, 0xf4, 0xd2, 0x0f, 0x3d, 0x44, 0x55, 0xb7, 0x3d, 0x0b, 0x02, 0x77, 0x3e, 0x8c, 0xb3, 0xe6, 0x3e, 0x81, 0x0b, 0xc7, 0xbe, 0x24, 0x04, 0xb6, 0xbe, 0xa3, 0xf1, 0x13, 0x3e, 0xab, 0x51, 0xaf, 0x3e, 0x3b, 0x19, 0x47, 0xbe, 0xee, 0x09, 0xda, 0x3e, 0xd9, 0x8d, 0x8d, 0xbe, 0x16, 0x48, 0xa8, 0x3e, 0xa1, 0xb9, 0x56, 0xbd, 0x88, 0xc3, 0xd9, 0x3e, 0x1f, 0xff, 0x41, 0xbd, 0x6f, 0x0a, 0x94, 0x3b, 0x00, 0xd4, 0xb3, 0x39, 0x25, 0x1e, 0xeb, 0x3d, 0x62, 0xe9, 0x7b, 0xbd, 0x89, 0xad, 0xd2, 0xbe, 0x00, 0x54, 0xb9, 0x3a, 0x72, 0x43, 0x51, 0x3e, 0x06, 0xd4, 0xac, 0xbe, 0x3c, 0x8e, 0x46, 0xbe, 0x59, 0x2a, 0x85, 0x3e, 0x9c, 0x40, 0xf9, 0x3d, 0xa0, 0xde, 0x6b, 0x3c, 0x16, 0x13, 0x91, 0x3d, 0x58, 0x34, 0x41, 0xbe, 0xbb, 0xff, 0x3a, 0x3e, 0xf5, 0xa1, 0x9d, 0xbd, 0xbc, 0xda, 0x8f, 0x3d, 0x9d, 0x0f, 0x53, 0xbc, 0x11, 0xeb, 0xc0, 0x3d, 0xbd, 0xde, 0x18, 0xbe, 0xba, 0xe8, 0xad, 0x3e, 0x30, 0x29, 0x9f, 0x3d, 0x97, 0x9c, 0x42, 0x3e, 0x57, 0x7c, 0xa8, 0x3e, 0x98, 0x6b, 0x95, 0xbe, 0xf2, 0x09, 0x83, 0xbe, 0x8c, 0x14, 0x1e, 0xbe, 0x5c, 0x72, 0xbc, 0x3d, 0xe1, 0x6a, 0x8b, 0xbd, 0x9e, 0xf3, 0xb8, 0xbc, 0x03, 0xc3, 0xf8, 0x3d, 0x21, 0x25, 0x36, 0x3e, 0x28, 0x9a, 0x62, 0x3d, 0x97, 0xfe, 0x87, 0xbe, 0xea, 0xaf, 0xb9, 0xbe, 0x89, 0x07, 0x48, 0xbe, 0xaf, 0xa9, 0xfb, 0xbd, 0x4c, 0x99, 0x8b, 0xbe, 0x3a, 0x43, 0x4c, 0x3e, 0x97, 0xa3, 0x90, 0x3e, 0xd8, 0x22, 0x96, 0xbe, 0x8c, 0xc6, 0x89, 0x3d, 0x9e, 0xfe, 0xff, 0xff, 0x04, 0x00, 0x00, 0x00, 0xc0, 0x00, 0x00, 0x00, 0x96, 0xe7, 0x20, 0x3e, 0x20, 0xb0, 0x8d, 0xbe, 0xca, 0x0d, 0x11, 0x3f, 0x42, 0xc2, 0x9f, 0xbe, 0x21, 0x8a, 0x1e, 0xbf, 0xc0, 0x2d, 0xf8, 0x3e, 0x07, 0xc3, 0x53, 0x3e, 0x16, 0xe7, 0x07, 0x3f, 0x5c, 0xf2, 0x1a, 0xbf, 0x7a, 0x4e, 0x09, 0x3f, 0x63, 0xbc, 0xb2, 0x3e, 0x98, 0xff, 0xce, 0x3e, 0x1a, 0x65, 0x5d, 0x3e, 0x16, 0x73, 0x1d, 0xbe, 0x61, 0x2f, 0xf2, 0x3e, 0x28, 0xcb, 0x07, 0x3d, 0x0f, 0x34, 0x64, 0x3e, 0x9e, 0x7c, 0xab, 0xbc, 0x62, 0x6e, 0x5d, 0x3c, 0xec, 0xe7, 0x87, 0xbe, 0x10, 0xd8, 0x0b, 0x3f, 0xd3, 0xe1, 0x3d, 0x3d, 0x1a, 0xfa, 0x95, 0x3d, 0xca, 0x10, 0x58, 0xbe, 0x51, 0x1f, 0xa9, 0x3d, 0x53, 0x5e, 0x1d, 0xbf, 0x50, 0x75, 0x0b, 0xbf, 0xf6, 0xd3, 0x14, 0x3f, 0x72, 0xd4, 0x37, 0xbe, 0x06, 0xfe, 0xe2, 0x3e, 0x08, 0xf5, 0xa6, 0x3e, 0x0c, 0xac, 0xe8, 0x3d, 0x39, 0x4e, 0x2e, 0xbf, 0xd3, 0xe8, 0x17, 0x3f, 0xf4, 0xed, 0x90, 0x3e, 0x87, 0xc8, 0x64, 0x3e, 0x86, 0x39, 0xfb, 0x3e, 0xf1, 0x2d, 0xc4, 0xbe, 0x17, 0x5f, 0x9d, 0xbd, 0x58, 0x8b, 0x4b, 0xbf, 0x33, 0xaa, 0xaa, 0x3c, 0xcd, 0x68, 0x91, 0x3d, 0x66, 0x93, 0x15, 0xbe, 0xca, 0x21, 0x05, 0xbf, 0xb2, 0x80, 0x9d, 0xbe, 0x85, 0x38, 0x12, 0xbd, 0x13, 0x6f, 0x8b, 0xbc, 0x3c, 0xc0, 0xeb, 0x3d, 0x64, 0xfa, 0xff, 0xff, 0x68, 0xfa, 0xff, 0xff, 0x0f, 0x00, 0x00, 0x00, 0x4d, 0x4c, 0x49, 0x52, 0x20, 0x43, 0x6f, 0x6e, 0x76, 0x65, 0x72, 0x74, 0x65, 0x64, 0x2e, 0x00, 0x01, 0x00, 0x00, 0x00, 0x14, 0x00, 0x00, 0x00, 0x00, 0x00, 0x0e, 0x00, 0x18, 0x00, 0x14, 0x00, 0x10, 0x00, 0x0c, 0x00, 0x08, 0x00, 0x04, 0x00, 0x0e, 0x00, 0x00, 0x00, 0x14, 0x00, 0x00, 0x00, 0x1c, 0x00, 0x00, 0x00, 0x24, 0x01, 0x00, 0x00, 0x28, 0x01, 0x00, 0x00, 0x2c, 0x01, 0x00, 0x00, 0x04, 0x00, 0x00, 0x00, 0x6d, 0x61, 0x69, 0x6e, 0x00, 0x00, 0x00, 0x00, 0x04, 0x00, 0x00, 0x00, 0xcc, 0x00, 0x00, 0x00, 0x84, 0x00, 0x00, 0x00, 0x50, 0x00, 0x00, 0x00, 0x14, 0x00, 0x00, 0x00, 0x00, 0x00, 0x0e, 0x00, 0x1a, 0x00, 0x14, 0x00, 0x10, 0x00, 0x0c, 0x00, 0x0b, 0x00, 0x04, 0x00, 0x0e, 0x00, 0x00, 0x00, 0x1c, 0x00, 0x00, 0x00, 0x00, 0x00, 0x00, 0x09, 0x1c, 0x00, 0x00, 0x00, 0x20, 0x00, 0x00, 0x00, 0x01, 0x00, 0x00, 0x00, 0x00, 0x00, 0x06, 0x00, 0x08, 0x00, 0x04, 0x00, 0x06, 0x00, 0x00, 0x00, 0x00, 0x00, 0x80, 0x3f, 0x01, 0x00, 0x00, 0x00, 0x0a, 0x00, 0x00, 0x00, 0x01, 0x00, 0x00, 0x00, 0x09, 0x00, 0x00, 0x00, 0x9a, 0xff, 0xff, 0xff, 0x10, 0x00, 0x00, 0x00, 0x00, 0x00, 0x00, 0x08, 0x0c, 0x00, 0x00, 0x00, 0x10, 0x00, 0x00, 0x00, 0x2c, 0xfb, 0xff, 0xff, 0x01, 0x00, 0x00, 0x00, 0x09, 0x00, 0x00, 0x00, 0x03, 0x00, 0x00, 0x00, 0x08, 0x00, 0x00, 0x00, 0x01, 0x00, 0x00, 0x00, 0x03, 0x00, 0x00, 0x00, 0xca, 0xff, 0xff, 0xff, 0x10, 0x00, 0x00, 0x00, 0x00, 0x00, 0x00, 0x08, 0x10, 0x00, 0x00, 0x00, 0x14, 0x00, 0x00, 0x00, 0xba, 0xff, 0xff, 0xff, 0x00, 0x00, 0x00, 0x01, 0x01, 0x00, 0x00, 0x00, 0x08, 0x00, 0x00, 0x00, 0x03, 0x00, 0x00, 0x00, 0x07, 0x00, 0x00, 0x00, 0x02, 0x00, 0x00, 0x00, 0x04, 0x00, 0x00, 0x00, 0x00, 0x00, 0x0e, 0x00, 0x16, 0x00, 0x00, 0x00, 0x10, 0x00, 0x0c, 0x00, 0x0b, 0x00, 0x04, 0x00, 0x0e, 0x00, 0x00, 0x00, 0x18, 0x00, 0x00, 0x00, 0x00, 0x00, 0x00, 0x08, 0x18, 0x00, 0x00, 0x00, 0x1c, 0x00, 0x00, 0x00, 0x00, 0x00, 0x06, 0x00, 0x08, 0x00, 0x07, 0x00, 0x06, 0x00, 0x00, 0x00, 0x00, 0x00, 0x00, 0x01, 0x01, 0x00, 0x00, 0x00, 0x07, 0x00, 0x00, 0x00, 0x03, 0x00, 0x00, 0x00, 0x00, 0x00, 0x00, 0x00, 0x06, 0x00, 0x00, 0x00, 0x05, 0x00, 0x00, 0x00, 0x01, 0x00, 0x00, 0x00, 0x0a, 0x00, 0x00, 0x00, 0x01, 0x00, 0x00, 0x00, 0x00, 0x00, 0x00, 0x00, 0x0b, 0x00, 0x00, 0x00, 0xfc, 0x03, 0x00, 0x00, 0xa4, 0x03, 0x00, 0x00, 0x4c, 0x03, 0x00, 0x00, 0x10, 0x03, 0x00, 0x00, 0xb4, 0x02, 0x00, 0x00, 0x5c, 0x02, 0x00, 0x00, 0x10, 0x02, 0x00, 0x00, 0x7c, 0x01, 0x00, 0x00, 0xe0, 0x00, 0x00, 0x00, 0x60, 0x00, 0x00, 0x00, 0x04, 0x00, 0x00, 0x00, 0x46, 0xfc, 0xff, 0xff, 0x00, 0x00, 0x00, 0x01, 0x14, 0x00, 0x00, 0x00, 0x1c, 0x00, 0x00, 0x00, 0x1c, 0x00, 0x00, 0x00, 0x0b, 0x00, 0x00, 0x00, 0x34, 0x00, 0x00, 0x00, 0x02, 0x00, 0x00, 0x00, 0xff, 0xff, 0xff, 0xff, 0x03, 0x00, 0x00, 0x00, 0x30, 0xfc, 0xff, 0xff, 0x1b, 0x00, 0x00, 0x00, 0x53, 0x74, 0x61, 0x74, 0x65, 0x66, 0x75, 0x6c, 0x50, 0x61, 0x72, 0x74, 0x69, 0x74, 0x69, 0x6f, 0x6e, 0x65, 0x64, 0x43, 0x61, 0x6c, 0x6c, 0x5f, 0x31, 0x3a, 0x30, 0x00, 0x02, 0x00, 0x00, 0x00, 0x01, 0x00, 0x00, 0x00, 0x03, 0x00, 0x00, 0x00, 0x9e, 0xfc, 0xff, 0xff, 0x00, 0x00, 0x00, 0x01, 0x14, 0x00, 0x00, 0x00, 0x1c, 0x00, 0x00, 0x00, 0x1c, 0x00, 0x00, 0x00, 0x0a, 0x00, 0x00, 0x00, 0x58, 0x00, 0x00, 0x00, 0x02, 0x00, 0x00, 0x00, 0xff, 0xff, 0xff, 0xff, 0x03, 0x00, 0x00, 0x00, 0x88, 0xfc, 0xff, 0xff, 0x3c, 0x00, 0x00, 0x00, 0x73, 0x65, 0x71, 0x75, 0x65, 0x6e, 0x74, 0x69, 0x61, 0x6c, 0x5f, 0x31, 0x2f, 0x64, 0x65, 0x6e, 0x73, 0x65, 0x5f, 0x32, 0x5f, 0x31, 0x2f, 0x4d, 0x61, 0x74, 0x4d, 0x75, 0x6c, 0x3b, 0x73, 0x65, 0x71, 0x75, 0x65, 0x6e, 0x74, 0x69, 0x61, 0x6c, 0x5f, 0x31, 0x2f, 0x64, 0x65, 0x6e, 0x73, 0x65, 0x5f, 0x32, 0x5f, 0x31, 0x2f, 0x42, 0x69, 0x61, 0x73, 0x41, 0x64, 0x64, 0x00, 0x00, 0x00, 0x00, 0x02, 0x00, 0x00, 0x00, 0x01, 0x00, 0x00, 0x00, 0x03, 0x00, 0x00, 0x00, 0x1a, 0xfd, 0xff, 0xff, 0x00, 0x00, 0x00, 0x01, 0x14, 0x00, 0x00, 0x00, 0x1c, 0x00, 0x00, 0x00, 0x1c, 0x00, 0x00, 0x00, 0x09, 0x00, 0x00, 0x00, 0x74, 0x00, 0x00, 0x00, 0x02, 0x00, 0x00, 0x00, 0xff, 0xff, 0xff, 0xff, 0x10, 0x00, 0x00, 0x00, 0x04, 0xfd, 0xff, 0xff, 0x58, 0x00, 0x00, 0x00, 0x73, 0x65, 0x71, 0x75, 0x65, 0x6e, 0x74, 0x69, 0x61, 0x6c, 0x5f, 0x31, 0x2f, 0x64, 0x65, 0x6e, 0x73, 0x65, 0x5f, 0x31, 0x5f, 0x32, 0x2f, 0x4d, 0x61, 0x74, 0x4d, 0x75, 0x6c, 0x3b, 0x73, 0x65, 0x71, 0x75, 0x65, 0x6e, 0x74, 0x69, 0x61, 0x6c, 0x5f, 0x31, 0x2f, 0x64, 0x65, 0x6e, 0x73, 0x65, 0x5f, 0x31, 0x5f, 0x32, 0x2f, 0x52, 0x65, 0x6c, 0x75, 0x3b, 0x73, 0x65, 0x71, 0x75, 0x65, 0x6e, 0x74, 0x69, 0x61, 0x6c, 0x5f, 0x31, 0x2f, 0x64, 0x65, 0x6e, 0x73, 0x65, 0x5f, 0x31, 0x5f, 0x32, 0x2f, 0x42, 0x69, 0x61, 0x73, 0x41, 0x64, 0x64, 0x00, 0x00, 0x00, 0x00, 0x02, 0x00, 0x00, 0x00, 0x01, 0x00, 0x00, 0x00, 0x10, 0x00, 0x00, 0x00, 0xb2, 0xfd, 0xff, 0xff, 0x00, 0x00, 0x00, 0x01, 0x14, 0x00, 0x00, 0x00, 0x1c, 0x00, 0x00, 0x00, 0x1c, 0x00, 0x00, 0x00, 0x08, 0x00, 0x00, 0x00, 0x6c, 0x00, 0x00, 0x00, 0x02, 0x00, 0x00, 0x00, 0xff, 0xff, 0xff, 0xff, 0x20, 0x00, 0x00, 0x00, 0x9c, 0xfd, 0xff, 0xff, 0x52, 0x00, 0x00, 0x00, 0x73, 0x65, 0x71, 0x75, 0x65, 0x6e, 0x74, 0x69, 0x61, 0x6c, 0x5f, 0x31, 0x2f, 0x64, 0x65, 0x6e, 0x73, 0x65, 0x5f, 0x31, 0x2f, 0x4d, 0x61, 0x74, 0x4d, 0x75, 0x6c, 0x3b, 0x73, 0x65, 0x71, 0x75, 0x65, 0x6e, 0x74, 0x69, 0x61, 0x6c, 0x5f, 0x31, 0x2f, 0x64, 0x65, 0x6e, 0x73, 0x65, 0x5f, 0x31, 0x2f, 0x52, 0x65, 0x6c, 0x75, 0x3b, 0x73, 0x65, 0x71, 0x75, 0x65, 0x6e, 0x74, 0x69, 0x61, 0x6c, 0x5f, 0x31, 0x2f, 0x64, 0x65, 0x6e, 0x73, 0x65, 0x5f, 0x31, 0x2f, 0x42, 0x69, 0x61, 0x73, 0x41, 0x64, 0x64, 0x00, 0x00, 0x02, 0x00, 0x00, 0x00, 0x01, 0x00, 0x00, 0x00, 0x20, 0x00, 0x00, 0x00, 0x96, 0xfe, 0xff, 0xff, 0x00, 0x00, 0x00, 0x01, 0x10, 0x00, 0x00, 0x00, 0x10, 0x00, 0x00, 0x00, 0x07, 0x00, 0x00, 0x00, 0x28, 0x00, 0x00, 0x00, 0x1c, 0xfe, 0xff, 0xff, 0x1b, 0x00, 0x00, 0x00, 0x73, 0x65, 0x71, 0x75, 0x65, 0x6e, 0x74, 0x69, 0x61, 0x6c, 0x5f, 0x31, 0x2f, 0x64, 0x65, 0x6e, 0x73, 0x65, 0x5f, 0x31, 0x2f, 0x4d, 0x61, 0x74, 0x4d, 0x75, 0x6c, 0x00, 0x02, 0x00, 0x00, 0x00, 0x20, 0x00, 0x00, 0x00, 0x04, 0x00, 0x00, 0x00, 0xde, 0xfe, 0xff, 0xff, 0x00, 0x00, 0x00, 0x01, 0x10, 0x00, 0x00, 0x00, 0x10, 0x00, 0x00, 0x00, 0x06, 0x00, 0x00, 0x00, 0x38, 0x00, 0x00, 0x00, 0x64, 0xfe, 0xff, 0xff, 0x2b, 0x00, 0x00, 0x00, 0x73, 0x65, 0x71, 0x75, 0x65, 0x6e, 0x74, 0x69, 0x61, 0x6c, 0x5f, 0x31, 0x2f, 0x64, 0x65, 0x6e, 0x73, 0x65, 0x5f, 0x31, 0x2f, 0x42, 0x69, 0x61, 0x73, 0x41, 0x64, 0x64, 0x2f, 0x52, 0x65, 0x61, 0x64, 0x56, 0x61, 0x72, 0x69, 0x61, 0x62, 0x6c, 0x65, 0x4f, 0x70, 0x00, 0x01, 0x00, 0x00, 0x00, 0x20, 0x00, 0x00, 0x00, 0x32, 0xff, 0xff, 0xff, 0x00, 0x00, 0x00, 0x01, 0x10, 0x00, 0x00, 0x00, 0x10, 0x00, 0x00, 0x00, 0x05, 0x00, 0x00, 0x00, 0x3c, 0x00, 0x00, 0x00, 0xb8, 0xfe, 0xff, 0xff, 0x2d, 0x00, 0x00, 0x00, 0x73, 0x65, 0x71, 0x75, 0x65, 0x6e, 0x74, 0x69, 0x61, 0x6c, 0x5f, 0x31, 0x2f, 0x64, 0x65, 0x6e, 0x73, 0x65, 0x5f, 0x31, 0x5f, 0x32, 0x2f, 0x42, 0x69, 0x61, 0x73, 0x41, 0x64, 0x64, 0x2f, 0x52, 0x65, 0x61, 0x64, 0x56, 0x61, 0x72, 0x69, 0x61, 0x62, 0x6c, 0x65, 0x4f, 0x70, 0x00, 0x00, 0x00, 0x01, 0x00, 0x00, 0x00, 0x10, 0x00, 0x00, 0x00, 0x8a, 0xff, 0xff, 0xff, 0x00, 0x00, 0x00, 0x01, 0x10, 0x00, 0x00, 0x00, 0x10, 0x00, 0x00, 0x00, 0x04, 0x00, 0x00, 0x00, 0x1c, 0x00, 0x00, 0x00, 0x10, 0xff, 0xff, 0xff, 0x0f, 0x00, 0x00, 0x00, 0x61, 0x72, 0x69, 0x74, 0x68, 0x2e, 0x63, 0x6f, 0x6e, 0x73, 0x74, 0x61, 0x6e, 0x74, 0x32, 0x00, 0x01, 0x00, 0x00, 0x00, 0x03, 0x00, 0x00, 0x00, 0xc2, 0xff, 0xff, 0xff, 0x00, 0x00, 0x00, 0x01, 0x10, 0x00, 0x00, 0x00, 0x10, 0x00, 0x00, 0x00, 0x03, 0x00, 0x00, 0x00, 0x1c, 0x00, 0x00, 0x00, 0x48, 0xff, 0xff, 0xff, 0x0f, 0x00, 0x00, 0x00, 0x61, 0x72, 0x69, 0x74, 0x68, 0x2e, 0x63, 0x6f, 0x6e, 0x73, 0x74, 0x61, 0x6e, 0x74, 0x31, 0x00, 0x02, 0x00, 0x00, 0x00, 0x10, 0x00, 0x00, 0x00, 0x20, 0x00, 0x00, 0x00, 0x00, 0x00, 0x16, 0x00, 0x18, 0x00, 0x14, 0x00, 0x00, 0x00, 0x10, 0x00, 0x0c, 0x00, 0x08, 0x00, 0x00, 0x00, 0x00, 0x00, 0x00, 0x00, 0x07, 0x00, 0x16, 0x00, 0x00, 0x00, 0x00, 0x00, 0x00, 0x01, 0x10, 0x00, 0x00, 0x00, 0x10, 0x00, 0x00, 0x00, 0x02, 0x00, 0x00, 0x00, 0x1c, 0x00, 0x00, 0x00, 0x9c, 0xff, 0xff, 0xff, 0x0e, 0x00, 0x00, 0x00, 0x61, 0x72, 0x69, 0x74, 0x68, 0x2e, 0x63, 0x6f, 0x6e, 0x73, 0x74, 0x61, 0x6e, 0x74, 0x00, 0x00, 0x02, 0x00, 0x00, 0x00, 0x03, 0x00, 0x00, 0x00, 0x10, 0x00, 0x00, 0x00, 0x00, 0x00, 0x16, 0x00, 0x1c, 0x00, 0x18, 0x00, 0x00, 0x00, 0x14, 0x00, 0x10, 0x00, 0x0c, 0x00, 0x00, 0x00, 0x00, 0x00, 0x08, 0x00, 0x07, 0x00, 0x16, 0x00, 0x00, 0x00, 0x00, 0x00, 0x00, 0x01, 0x14, 0x00, 0x00, 0x00, 0x20, 0x00, 0x00, 0x00, 0x20, 0x00, 0x00, 0x00, 0x01, 0x00, 0x00, 0x00, 0x3c, 0x00, 0x00, 0x00, 0x02, 0x00, 0x00, 0x00, 0xff, 0xff, 0xff, 0xff, 0x04, 0x00, 0x00, 0x00, 0x04, 0x00, 0x04, 0x00, 0x04, 0x00, 0x00, 0x00, 0x1e, 0x00, 0x00, 0x00, 0x73, 0x65, 0x72, 0x76, 0x69, 0x6e, 0x67, 0x5f, 0x64, 0x65, 0x66, 0x61, 0x75, 0x6c, 0x74, 0x5f, 0x6b, 0x65, 0x72, 0x61, 0x73, 0x5f, 0x74, 0x65, 0x6e, 0x73, 0x6f, 0x72, 0x3a, 0x30, 0x00, 0x00, 0x02, 0x00, 0x00, 0x00, 0x01, 0x00, 0x00, 0x00, 0x04, 0x00, 0x00, 0x00, 0x02, 0x00, 0x00, 0x00, 0x20, 0x00, 0x00, 0x00, 0x04, 0x00, 0x00, 0x00, 0xf4, 0xff, 0xff, 0xff, 0x19, 0x00, 0x00, 0x00, 0x00, 0x00, 0x00, 0x19, 0x0c, 0x00, 0x0c, 0x00, 0x0b, 0x00, 0x00, 0x00, 0x00, 0x00, 0x04, 0x00, 0x0c, 0x00, 0x00, 0x00, 0x09, 0x00, 0x00, 0x00, 0x00, 0x00, 0x00, 0x09};